{
  "version": "1.0",
  "truncation": null,
  "padding": null,
  "added_tokens": [
    {
      "id": 0,
      "content": "[PAD]",
      "single_word": false,
      "lstrip": false,
      "rstrip": false,
      "normalized": false,
      "special": true
    },
    {
      "id": 1,
      "content": "[BOS]",
      "single_word": false,
      "lstrip": false,
      "rstrip": false,
      "normalized": false,
      "special": true
    },
    {
      "id": 2,
      "content": "[EOS]",
      "single_word": false,
      "lstrip": false,
      "rstrip": false,
      "normalized": false,
      "special": true
    },
    {
      "id": 3,
      "content": "[UNK]",
      "single_word": false,
      "lstrip": false,
      "rstrip": false,
      "normalized": false,
      "special": true
    }
  ],
  "normalizer": {
    "type": "NFKC"
  },
  "pre_tokenizer": {
    "type": "ByteLevel",
    "add_prefix_space": true,
    "trim_offsets": true,
    "use_regex": true
  },
  "decoder": {
		"type": "ByteLevel",
		"add_prefix_space": true,
		"trim_offsets": true
	},
  "model": {
    "type": "BPE",
    "dropout": null,
    "unk_token": null,
    "continuing_subword_prefix": null,
    "end_of_word_suffix": null,
    "fuse_unk": false,
    "byte_fallback": false,
    "ignore_merges": false,
    "vocab": {
      "[PAD]": 0,
      "[BOS]": 1,
      "[EOS]": 2,
      "[UNK]": 3,
      "!": 4,
      "\"": 5,
      "#": 6,
      "$": 7,
      "%": 8,
      "&": 9,
      "'": 10,
      "(": 11,
      ")": 12,
      "*": 13,
      "+": 14,
      ",": 15,
      "-": 16,
      ".": 17,
      "/": 18,
      "0": 19,
      "1": 20,
      "2": 21,
      "3": 22,
      "4": 23,
      "5": 24,
      "6": 25,
      "7": 26,
      "8": 27,
      "9": 28,
      ":": 29,
      ";": 30,
      "<": 31,
      "=": 32,
      ">": 33,
      "?": 34,
      "@": 35,
      "A": 36,
      "B": 37,
      "C": 38,
      "D": 39,
      "E": 40,
      "F": 41,
      "G": 42,
      "H": 43,
      "I": 44,
      "J": 45,
      "K": 46,
      "L": 47,
      "M": 48,
      "N": 49,
      "O": 50,
      "P": 51,
      "Q": 52,
      "R": 53,
      "S": 54,
      "T": 55,
      "U": 56,
      "V": 57,
      "W": 58,
      "X": 59,
      "Y": 60,
      "Z": 61,
      "[": 62,
      "\\": 63,
      "]": 64,
      "^": 65,
      "_": 66,
      "`": 67,
      "a": 68,
      "b": 69,
      "c": 70,
      "d": 71,
      "e": 72,
      "f": 73,
      "g": 74,
      "h": 75,
      "i": 76,
      "j": 77,
      "k": 78,
      "l": 79,
      "m": 80,
      "n": 81,
      "o": 82,
      "p": 83,
      "q": 84,
      "r": 85,
      "s": 86,
      "t": 87,
      "u": 88,
      "v": 89,
      "w": 90,
      "x": 91,
      "y": 92,
      "z": 93,
      "{": 94,
      "|": 95,
      "}": 96,
      "~": 97,
      "¡": 98,
      "¢": 99,
      "£": 100,
      "¤": 101,
      "¥": 102,
      "¦": 103,
      "§": 104,
      "¨": 105,
      "©": 106,
      "ª": 107,
      "«": 108,
      "¬": 109,
      "®": 110,
      "¯": 111,
      "°": 112,
      "±": 113,
      "²": 114,
      "³": 115,
      "´": 116,
      "µ": 117,
      "¶": 118,
      "·": 119,
      "¸": 120,
      "¹": 121,
      "º": 122,
      "»": 123,
      "¼": 124,
      "½": 125,
      "¾": 126,
      "¿": 127,
      "Â": 128,
      "Ã": 129,
      "Ä": 130,
      "Å": 131,
      "Æ": 132,
      "Ç": 133,
      "È": 134,
      "É": 135,
      "Ê": 136,
      "Ë": 137,
      "Ì": 138,
      "Í": 139,
      "Î": 140,
      "Ï": 141,
      "Ð": 142,
      "Ñ": 143,
      "Ò": 144,
      "Ó": 145,
      "Ö": 146,
      "×": 147,
      "Ø": 148,
      "Ù": 149,
      "Ú": 150,
      "Û": 151,
      "Þ": 152,
      "ß": 153,
      "à": 154,
      "á": 155,
      "â": 156,
      "ã": 157,
      "ä": 158,
      "å": 159,
      "æ": 160,
      "ç": 161,
      "è": 162,
      "é": 163,
      "ê": 164,
      "ë": 165,
      "ì": 166,
      "í": 167,
      "î": 168,
      "ï": 169,
      "ð": 170,
      "ò": 171,
      "ĉ": 172,
      "č": 173,
      "Ġ": 174,
      "ġ": 175,
      "Ģ": 176,
      "ģ": 177,
      "Ĥ": 178,
      "ĥ": 179,
      "Ħ": 180,
      "ħ": 181,
      "Ĩ": 182,
      "ĩ": 183,
      "Ī": 184,
      "ī": 185,
      "Ĭ": 186,
      "ĭ": 187,
      "Į": 188,
      "į": 189,
      "İ": 190,
      "ı": 191,
      "Ĳ": 192,
      "ĳ": 193,
      "Ĵ": 194,
      "ĵ": 195,
      "Ķ": 196,
      "ķ": 197,
      "ĸ": 198,
      "Ĺ": 199,
      "ĺ": 200,
      "Ļ": 201,
      "ļ": 202,
      "Ľ": 203,
      "ľ": 204,
      "Ŀ": 205,
      "ŀ": 206,
      "Ł": 207,
      "ł": 208,
      "Ń": 209,
      "en": 210,
      "er": 211,
      "in": 212,
      "Ġa": 213,
      "Ġt": 214,
      "Ġd": 215,
      "ch": 216,
      "es": 217,
      "on": 218,
      "Ġth": 219,
      "un": 220,
      "it": 221,
      "is": 222,
      "Ġs": 223,
      "Ġw": 224,
      "at": 225,
      "ie": 226,
      "or": 227,
      "an": 228,
      "Ġthe": 229,
      "re": 230,
      "Ġb": 231,
      "Ġo": 232,
      "al": 233,
      "ar": 234,
      "Ġin": 235,
      "Ġf": 236,
      "ich": 237,
      "Ġm": 238,
      "te": 239,
      "ion": 240,
      "Ġe": 241,
      "Ġan": 242,
      "ur": 243,
      "as": 244,
      "le": 245,
      "Ġp": 246,
      "Ġc": 247,
      "Ġun": 248,
      "Ġh": 249,
      "us": 250,
      "ĠS": 251,
      "ent": 252,
      "ge": 253,
      "Ġof": 254,
      "ro": 255,
      "Ã¼": 256,
      "Ġn": 257,
      "Ġv": 258,
      "ing": 259,
      "ung": 260,
      "Ġand": 261,
      "Ġto": 262,
      "Ã¤": 263,
      "ĠA": 264,
      "ll": 265,
      "ed": 266,
      "Ġdie": 267,
      "om": 268,
      "Ġder": 269,
      "Ġund": 270,
      "ĠE": 271,
      "ĠI": 272,
      "ig": 273,
      "st": 274,
      "ic": 275,
      "Ġbe": 276,
      "ĠM": 277,
      "Ġis": 278,
      "ĠD": 279,
      "ĠT": 280,
      "Ġein": 281,
      "ĠB": 282,
      "ĠP": 283,
      "ir": 284,
      "Ġz": 285,
      "im": 286,
      "Ġg": 287,
      "el": 288,
      "ut": 289,
      "ra": 290,
      "ter": 291,
      "em": 292,
      "il": 293,
      "ĠW": 294,
      "ten": 295,
      "ol": 296,
      "ation": 297,
      "der": 298,
      "eit": 299,
      "et": 300,
      "ĠF": 301,
      "Ġl": 302,
      "am": 303,
      "den": 304,
      "Ġre": 305,
      "ĠG": 306,
      "hr": 307,
      "ies": 308,
      "um": 309,
      "op": 310,
      "ĠK": 311,
      "ct": 312,
      "ĠH": 313,
      "sch": 314,
      "ĠR": 315,
      "ul": 316,
      "Ġk": 317,
      "uf": 318,
      "ĠC": 319,
      "Ã¶": 320,
      "ber": 321,
      "iv": 322,
      "lich": 323,
      "de": 324,
      "ĠV": 325,
      "Ġfor": 326,
      "ab": 327,
      "ot": 328,
      "Ã¼r": 329,
      "isch": 330,
      "ier": 331,
      "icht": 332,
      "gen": 333,
      "ĠTh": 334,
      "Ġon": 335,
      "Ġdas": 336,
      "Ġzu": 337,
      "ĠL": 338,
      "ere": 339,
      "Ġden": 340,
      "ly": 341,
      "ess": 342,
      "est": 343,
      "Ġthat": 344,
      "os": 345,
      "and": 346,
      "id": 347,
      "ĠU": 348,
      "ce": 349,
      "omm": 350,
      "ein": 351,
      "ers": 352,
      "Ġpro": 353,
      "Ġal": 354,
      "ow": 355,
      "Ġwh": 356,
      "ach": 357,
      "Ġvon": 358,
      "Ġr": 359,
      "ort": 360,
      "Ġge": 361,
      "Ġim": 362,
      "uch": 363,
      "ÃŁ": 364,
      "Ġst": 365,
      "ith": 366,
      "Ġy": 367,
      "ĠIn": 368,
      "Ġwir": 369,
      "kt": 370,
      "ĠN": 371,
      "if": 372,
      "Ġcon": 373,
      "Ġist": 374,
      "Ġver": 375,
      "Ġer": 376,
      "ver": 377,
      "Ġwith": 378,
      "Ġauf": 379,
      "Ġwe": 380,
      "ĠfÃ¼r": 381,
      "urop": 382,
      "ay": 383,
      "ill": 384,
      "Ġdes": 385,
      "Ġit": 386,
      "ve": 387,
      "Ġmit": 388,
      "Ġare": 389,
      "ad": 390,
      "ts": 391,
      "ĠZ": 392,
      "Ġ1": 393,
      "ind": 394,
      "Ġas": 395,
      "ck": 396,
      "Ġso": 397,
      "âĢ": 398,
      "Ġ(": 399,
      "Ġde": 400,
      "ĠThe": 401,
      "Ġne": 402,
      "iss": 403,
      "Ġyo": 404,
      "ĠSt": 405,
      "Ġdies": 406,
      "end": 407,
      "af": 408,
      "ĠEurop": 409,
      "pp": 410,
      "ate": 411,
      "ment": 412,
      "ik": 413,
      "th": 414,
      "Ġse": 415,
      "qu": 416,
      "Ġ2": 417,
      "ist": 418,
      "ungen": 419,
      "la": 420,
      "00": 421,
      "ĠUn": 422,
      "ischen": 423,
      "nen": 424,
      "men": 425,
      "ib": 426,
      "ĠVer": 427,
      "Ġals": 428,
      "ust": 429,
      "Ġeine": 430,
      "ak": 431,
      "Ġex": 432,
      "ant": 433,
      "ne": 434,
      "Ġdem": 435,
      "for": 436,
      "ah": 437,
      "Ġthis": 438,
      "ity": 439,
      "ĠO": 440,
      "Ġha": 441,
      "ien": 442,
      "ive": 443,
      "ial": 444,
      "ĠAn": 445,
      "ĠSie": 446,
      "Ġj": 447,
      "Ġor": 448,
      "art": 449,
      "Ġnicht": 450,
      "ĠJ": 451,
      "pe": 452,
      "Ġwer": 453,
      "und": 454,
      "ug": 455,
      "Ġco": 456,
      "Ġnot": 457,
      "ann": 458,
      "Ã¼ber": 459,
      "ste": 460,
      "Ġ-": 461,
      "Ġsich": 462,
      "Ġall": 463,
      "Ġle": 464,
      "Ã¤n": 465,
      "ub": 466,
      "ff": 467,
      "Ġwerden": 468,
      "tel": 469,
      "ĠRe": 470,
      "Ġby": 471,
      "we": 472,
      "Ġhave": 473,
      "Ġdass": 474,
      "rom": 475,
      "ag": 476,
      "igen": 477,
      "Ġat": 478,
      "igh": 479,
      "Ġes": 480,
      "ass": 481,
      "ens": 482,
      "ain": 483,
      "Ġaus": 484,
      "all": 485,
      "uld": 486,
      "ĠDie": 487,
      "Ġyou": 488,
      "Ġsh": 489,
      "up": 490,
      "Ġwill": 491,
      "sp": 492,
      "Ġab": 493,
      "od": 494,
      "Ġcom": 495,
      "Ġuns": 496,
      "iel": 497,
      "ern": 498,
      "ĠÃ¼ber": 499,
      "aus": 500,
      "Ġi": 501,
      "ure": 502,
      "Ġme": 503,
      "ze": 504,
      "ions": 505,
      "age": 506,
      "Ġwhich": 507,
      "ommiss": 508,
      "ĠPr": 509,
      "ran": 510,
      "ted": 511,
      "Ġwas": 512,
      "Ġauch": 513,
      "ĠSch": 514,
      "ben": 515,
      "lie": 516,
      "Ġfrom": 517,
      "ĠEurope": 518,
      "ahr": 519,
      "..": 520,
      "hen": 521,
      "ungs": 522,
      "hal": 523,
      "du": 524,
      "och": 525,
      "ard": 526,
      "Ġum": 527,
      "ĠBe": 528,
      "ĠâĢ": 529,
      "ould": 530,
      "Ġsind": 531,
      "Ġsch": 532,
      "ĠWe": 533,
      "Ġus": 534,
      "tern": 535,
      "ĠPro": 536,
      "tr": 537,
      "Ġch": 538,
      "ommission": 539,
      "ident": 540,
      "og": 541,
      "Ġpr": 542,
      "Ġent": 543,
      "fer": 544,
      "Ġvor": 545,
      "Ġwird": 546,
      "ĠEn": 547,
      "uss": 548,
      "Ġhas": 549,
      "esch": 550,
      "ue": 551,
      "Ġhab": 552,
      "schaf": 553,
      "ip": 554,
      "iz": 555,
      "mer": 556,
      "ft": 557,
      "port": 558,
      "ine": 559,
      "Ġwor": 560,
      "gr": 561,
      "Ã¶n": 562,
      "ss": 563,
      "ud": 564,
      "Ġres": 565,
      "Ġen": 566,
      "ang": 567,
      "oc": 568,
      "llen": 569,
      "ous": 570,
      "ische": 571,
      "ĠEr": 572,
      "ick": 573,
      "ok": 574,
      "ĠPar": 575,
      "Ġwie": 576,
      "Ġda": 577,
      "enn": 578,
      "ast": 579,
      "Ã¤t": 580,
      "our": 581,
      "Ġhe": 582,
      "urch": 583,
      "Ġcan": 584,
      "me": 585,
      "Ġman": 586,
      "ise": 587,
      "able": 588,
      "etz": 589,
      "Ġam": 590,
      "err": 591,
      "form": 592,
      "ige": 593,
      "ire": 594,
      "keit": 595,
      "Ġhat": 596,
      "Ġsein": 597,
      "Ġich": 598,
      "ĠAr": 599,
      "ap": 600,
      "ost": 601,
      "pr": 602,
      "Ġoder": 603,
      "ert": 604,
      "ament": 605,
      "Ġour": 606,
      "ia": 607,
      "ore": 608,
      "otel": 609,
      "be": 610,
      "cc": 611,
      "erv": 612,
      "Ġcomp": 613,
      "Ġzur": 614,
      "ult": 615,
      "Ġalso": 616,
      "beit": 617,
      "ĠEuropean": 618,
      "ations": 619,
      "Ġhaben": 620,
      "Ġsie": 621,
      "Ġ\"": 622,
      "ĠMit": 623,
      "ational": 624,
      "ction": 625,
      "ical": 626,
      "heit": 627,
      "ru": 628,
      "ition": 629,
      "Ġad": 630,
      "ese": 631,
      "ish": 632,
      "lichen": 633,
      "ĠAus": 634,
      "ice": 635,
      "lo": 636,
      "ated": 637,
      "he": 638,
      "are": 639,
      "out": 640,
      "dern": 641,
      "ĠEin": 642,
      "Ġbei": 643,
      "Ġdo": 644,
      "Ġeiner": 645,
      "ĠkÃ¶n": 646,
      "ĠÃ": 647,
      "ome": 648,
      "olit": 649,
      "rit": 650,
      "se": 651,
      "aten": 652,
      "tz": 653,
      "hl": 654,
      "ther": 655,
      "Ġ200": 656,
      "ĠWir": 657,
      "ĠGe": 658,
      "ord": 659,
      "ark": 660,
      "fÃ¼": 661,
      "pt": 662,
      "ieren": 663,
      "ect": 664,
      "Ġunter": 665,
      "Ã¼n": 666,
      "ĠParl": 667,
      "her": 668,
      "Ġnach": 669,
      "Ġqu": 670,
      "schaft": 671,
      "ac": 672,
      "Ġeinen": 673,
      "ht": 674,
      "ms": 675,
      "ign": 676,
      "'s": 677,
      "Ġpart": 678,
      "Ã¤r": 679,
      "tet": 680,
      "iert": 681,
      "elt": 682,
      "Ġyour": 683,
      "ight": 684,
      "Ġits": 685,
      "ĠUnion": 686,
      "vel": 687,
      "ates": 688,
      "oun": 689,
      "ake": 690,
      "Ġte": 691,
      "tra": 692,
      "ĠDas": 693,
      "ear": 694,
      "Ġreg": 695,
      "ite": 696,
      "Ġdurch": 697,
      "Ġgro": 698,
      "ĠFra": 699,
      "ank": 700,
      "ian": 701,
      "au": 702,
      "ger": 703,
      "ĠBer": 704,
      "yste": 705,
      "fen": 706,
      "Ġsu": 707,
      "Ġsp": 708,
      "Ġbut": 709,
      "ary": 710,
      "ĠIt": 711,
      "Ġwur": 712,
      "ember": 713,
      "Ġgo": 714,
      "Ġro": 715,
      "Ġag": 716,
      "ide": 717,
      "cial": 718,
      "ĠVor": 719,
      "ĠIch": 720,
      "ĠkÃ¶nnen": 721,
      "ĠAb": 722,
      "oll": 723,
      "Ġthere": 724,
      "liche": 725,
      "ĠMr": 726,
      "gt": 727,
      "per": 728,
      "Ġ3": 729,
      "Ã¤s": 730,
      "con": 731,
      "Ġapp": 732,
      "ose": 733,
      "Ã¶r": 734,
      "hre": 735,
      "Ġste": 736,
      "ĠCommission": 737,
      "anz": 738,
      "Ġdar": 739,
      "ĠEU": 740,
      "cht": 741,
      "ĠHerr": 742,
      "Ġtra": 743,
      "Ġwar": 744,
      "ual": 745,
      "chen": 746,
      "Ġ19": 747,
      "rie": 748,
      "cl": 749,
      "ime": 750,
      "Ġspe": 751,
      "Ġwould": 752,
      "eren": 753,
      "ĠmÃ¶": 754,
      "Ġmore": 755,
      "ance": 756,
      "tw": 757,
      "ĠâĢĵ": 758,
      "ile": 759,
      "ail": 760,
      "ov": 761,
      "Ġzum": 762,
      "Ġtheir": 763,
      "Ġeinem": 764,
      "ommen": 765,
      "Ġbeen": 766,
      "mp": 767,
      "Ġgen": 768,
      "Ġbes": 769,
      "Ġcont": 770,
      "reat": 771,
      "glich": 772,
      "ute": 773,
      "ase": 774,
      "imm": 775,
      "âĢĻ": 776,
      "uÃŁ": 777,
      "ĠAl": 778,
      "ong": 779,
      "ame": 780,
      "act": 781,
      "ĠEuropÃ¤": 782,
      "chte": 783,
      "chn": 784,
      "Ġar": 785,
      "ild": 786,
      "utz": 787,
      "ĠTe": 788,
      "gra": 789,
      "Ġkann": 790,
      "Ġfin": 791,
      "ĠThis": 792,
      "Ã¼ck": 793,
      "ble": 794,
      "oss": 795,
      "ĠDe": 796,
      "ack": 797,
      "Ġdiese": 798,
      "Ġone": 799,
      "che": 800,
      "Ã¼ss": 801,
      "ĠLe": 802,
      "Ġacc": 803,
      "Ġnur": 804,
      "ont": 805,
      "Ġdis": 806,
      "one": 807,
      "ugh": 808,
      "ents": 809,
      "Ġcoun": 810,
      "ĠCh": 811,
      "Ġper": 812,
      "ĠUnter": 813,
      "Ġcomm": 814,
      "ĠSp": 815,
      "sten": 816,
      "ges": 817,
      "gan": 818,
      "hn": 819,
      "ĠAuf": 820,
      "Ġshould": 821,
      "Ġalle": 822,
      "Ġbet": 823,
      "ahl": 824,
      "ĠHotel": 825,
      "Ġpl": 826,
      "Ġ.": 827,
      "Ġwork": 828,
      "ĠGr": 829,
      "wer": 830,
      "...": 831,
      "ution": 832,
      "lic": 833,
      "ike": 834,
      "Ġ,": 835,
      "Ġnew": 836,
      "ĠDer": 837,
      "ierung": 838,
      "geb": 839,
      "Ġup": 840,
      "eine": 841,
      "Ġcl": 842,
      "ob": 843,
      "ely": 844,
      "zu": 845,
      "ĠSe": 846,
      "land": 847,
      "hmen": 848,
      "auf": 849,
      "ree": 850,
      "ĠFor": 851,
      "hren": 852,
      "ĠJahr": 853,
      "ktion": 854,
      "Ã¤sident": 855,
      "Ġout": 856,
      "Ġdieser": 857,
      "av": 858,
      "igkeit": 859,
      "ĠPres": 860,
      "Ġob": 861,
      "to": 862,
      "ner": 863,
      "ld": 864,
      "olle": 865,
      "Ġjed": 866,
      "ons": 867,
      "reich": 868,
      "pl": 869,
      "Ġpre": 870,
      "Ġcountr": 871,
      "Ġvery": 872,
      "ings": 873,
      "ĠDies": 874,
      "Ġind": 875,
      "Ġmust": 876,
      "ĠEs": 877,
      "Ġinter": 878,
      "Ġzw": 879,
      "ke": 880,
      "Ġwho": 881,
      "ĠKommission": 882,
      "bar": 883,
      "Ġother": 884,
      "ĠdaÃŁ": 885,
      "Ġnoch": 886,
      "Ġprodu": 887,
      "ities": 888,
      "Ã¤hr": 889,
      "formation": 890,
      "Ġma": 891,
      "Ġev": 892,
      "Ġthey": 893,
      "Ġpe": 894,
      "Ġweit": 895,
      "ink": 896,
      "Ġneed": 897,
      "mit": 898,
      "gram": 899,
      "ces": 900,
      "pro": 901,
      "wo": 902,
      "ors": 903,
      "Ġwurde": 904,
      "ater": 905,
      "ments": 906,
      "tell": 907,
      "Ġno": 908,
      "Ġber": 909,
      "schen": 910,
      "Ġmehr": 911,
      "Ġsoll": 912,
      "Ġonly": 913,
      "Ġintern": 914,
      "Ġyear": 915,
      "Ġfe": 916,
      "rat": 917,
      "ĠPresident": 918,
      "Ġbec": 919,
      "Ġcons": 920,
      "Ġsupp": 921,
      "gel": 922,
      "Ġlike": 923,
      "Ġstr": 924,
      "Ġaber": 925,
      "ple": 926,
      "olog": 927,
      "oin": 928,
      "Ġ5": 929,
      "glie": 930,
      "ystem": 931,
      "Ġtime": 932,
      "Ġwenn": 933,
      "Ġabout": 934,
      "Ã¼ssen": 935,
      "ĠPrÃ¤sident": 936,
      "Ġpolit": 937,
      "teil": 938,
      "fe": 939,
      "pos": 940,
      "Ġ4": 941,
      "ible": 942,
      "Ġany": 943,
      "entr": 944,
      "erm": 945,
      "ious": 946,
      "assen": 947,
      "ĠY": 948,
      "ced": 949,
      "uen": 950,
      "leich": 951,
      "Ġprov": 952,
      ").": 953,
      "ange": 954,
      "Ġges": 955,
      "Ġsehr": 956,
      "ĠReg": 957,
      "velop": 958,
      "xt": 959,
      "ĠmÃ¼ssen": 960,
      "lin": 961,
      "Ġtran": 962,
      "ry": 963,
      "ally": 964,
      "itÃ¤t": 965,
      "enz": 966,
      "ject": 967,
      "Ġunser": 968,
      "nah": 969,
      "Ġwo": 970,
      "alt": 971,
      "Ġeff": 972,
      "cess": 973,
      "Ġsow": 974,
      "hnen": 975,
      "Ġra": 976,
      "iament": 977,
      "Ã¼tz": 978,
      "arbeit": 979,
      "ĠArbeit": 980,
      "Ġthese": 981,
      "onder": 982,
      "ient": 983,
      "ĠParlament": 984,
      "ammen": 985,
      "Ġrec": 986,
      "Ġserv": 987,
      "Ġsol": 988,
      "io": 989,
      "ĠMitglie": 990,
      "Ġdire": 991,
      "Ġoff": 992,
      "ans": 993,
      "ular": 994,
      "ĠMember": 995,
      "fore": 996,
      "atz": 997,
      "Ġvie": 998,
      "own": 999,
      "fahr": 1000,
      "Ġhin": 1001,
      "led": 1002,
      "ied": 1003,
      "ibt": 1004,
      "ility": 1005,
      "Ġimport": 1006,
      "usammen": 1007,
      "ring": 1008,
      "ĠSo": 1009,
      "Ġdiesem": 1010,
      "stit": 1011,
      "ĠMen": 1012,
      "als": 1013,
      "Ã¤l": 1014,
      "ph": 1015,
      "erson": 1016,
      "ider": 1017,
      "irst": 1018,
      "ople": 1019,
      "ause": 1020,
      "ures": 1021,
      "aaten": 1022,
      "ÃŁen": 1023,
      "igt": 1024,
      "Ġgegen": 1025,
      "Ġif": 1026,
      "Ġdevelop": 1027,
      "cy": 1028,
      "ism": 1029,
      "Ġla": 1030,
      "Ġsuch": 1031,
      "halten": 1032,
      "ĠUm": 1033,
      "wend": 1034,
      "fol": 1035,
      "Ġreport": 1036,
      "fl": 1037,
      "Ã¤nd": 1038,
      "Ġihre": 1039,
      "ook": 1040,
      "Ġact": 1041,
      "ays": 1042,
      "ĠEuropÃ¤ischen": 1043,
      "unden": 1044,
      "wn": 1045,
      "sche": 1046,
      "Ġpol": 1047,
      "ĠMa": 1048,
      "Ġgr": 1049,
      "iger": 1050,
      "iven": 1051,
      "Ġbis": 1052,
      "etzt": 1053,
      "Ġsub": 1054,
      "ative": 1055,
      "ateg": 1056,
      "dition": 1057,
      "ks": 1058,
      "ific": 1059,
      "Ġmy": 1060,
      "Ġrel": 1061,
      "ĠParliament": 1062,
      "Ġins": 1063,
      "ĠZeit": 1064,
      "Ġover": 1065,
      "ale": 1066,
      "itu": 1067,
      "wor": 1068,
      "Ġ20": 1069,
      "nehmen": 1070,
      "Ġinto": 1071,
      "Ġpeople": 1072,
      "Ġwere": 1073,
      "ĠNe": 1074,
      "Ġihr": 1075,
      "fÃ¼hr": 1076,
      "kte": 1077,
      "Ġwell": 1078,
      "str": 1079,
      "cre": 1080,
      "ices": 1081,
      "iden": 1082,
      "Ġgem": 1083,
      "ĠÃľ": 1084,
      "Ġinternational": 1085,
      "Ġbest": 1086,
      "ken": 1087,
      "ĠAs": 1088,
      "Ã©": 1089,
      "erg": 1090,
      "Ġsome": 1091,
      "),": 1092,
      "Ġviel": 1093,
      "ement": 1094,
      "ĠmÃ¶chte": 1095,
      "bs": 1096,
      "Ġwhat": 1097,
      "Ġuse": 1098,
      "lung": 1099,
      "acht": 1100,
      "cil": 1101,
      "enden": 1102,
      "Ġinv": 1103,
      "ĠMar": 1104,
      "isten": 1105,
      "conom": 1106,
      "ĠMitglied": 1107,
      "ene": 1108,
      "Ġdif": 1109,
      "ĠStates": 1110,
      "Ġhier": 1111,
      "Ġmark": 1112,
      "ĠOr": 1113,
      "Ġsa": 1114,
      "arge": 1115,
      "Ġhigh": 1116,
      "icher": 1117,
      "fr": 1118,
      "Ġher": 1119,
      "ĠCoun": 1120,
      "Ġeines": 1121,
      "uropÃ¤": 1122,
      "ĠIm": 1123,
      "amen": 1124,
      "ĠÃľber": 1125,
      "Ġhotel": 1126,
      "Ġkn": 1127,
      "ou": 1128,
      "rei": 1129,
      "very": 1130,
      "ory": 1131,
      "Ġbed": 1132,
      "ull": 1133,
      "Ġcountries": 1134,
      "Ġfirst": 1135,
      "Ġloc": 1136,
      "Ġthan": 1137,
      "Ġgew": 1138,
      "Ġincl": 1139,
      "Ġvom": 1140,
      "ention": 1141,
      "Ġmost": 1142,
      "ĠMe": 1143,
      "olitik": 1144,
      "zeit": 1145,
      "Ġhel": 1146,
      "Ġwicht": 1147,
      "Ġwhen": 1148,
      "Ġdec": 1149,
      "Ġtr": 1150,
      "Ġhis": 1151,
      "ĠQ": 1152,
      "Ġlie": 1153,
      "Ġpartic": 1154,
      "itte": 1155,
      "pect": 1156,
      "iet": 1157,
      "Ġunder": 1158,
      "esent": 1159,
      "Ġvers": 1160,
      "ace": 1161,
      "Ġthem": 1162,
      "ating": 1163,
      "inn": 1164,
      "ards": 1165,
      "ages": 1166,
      "ĠCouncil": 1167,
      "ĠKon": 1168,
      "Ġdam": 1169,
      "les": 1170,
      "Ġjust": 1171,
      "itz": 1172,
      "ett": 1173,
      "ĠEntw": 1174,
      "sicht": 1175,
      "ĠMenschen": 1176,
      "Ġpolic": 1177,
      "Ġsowie": 1178,
      "Ġwel": 1179,
      "Ġele": 1180,
      "ĠHe": 1181,
      "ĠBericht": 1182,
      "Ġnow": 1183,
      "Ġagain": 1184,
      "ĠeuropÃ¤": 1185,
      "abe": 1186,
      "ond": 1187,
      "Ġsupport": 1188,
      "Ã¤nder": 1189,
      "att": 1190,
      "tre": 1191,
      "Ġaut": 1192,
      "Ġdieses": 1193,
      "Ġgu": 1194,
      "Ġbas": 1195,
      "ats": 1196,
      "Ġimportant": 1197,
      "ights": 1198,
      "lÃ¤": 1199,
      "Ġmake": 1200,
      "Ã¤ch": 1201,
      "ween": 1202,
      "els": 1203,
      "ĠLand": 1204,
      "Ġgibt": 1205,
      "Ġpla": 1206,
      "halt": 1207,
      "Ġeconom": 1208,
      "Ġmany": 1209,
      "ues": 1210,
      "Ġhow": 1211,
      "Ġroom": 1212,
      "kl": 1213,
      "essen": 1214,
      "kommen": 1215,
      "Ġbetween": 1216,
      "ho": 1217,
      "stÃ¼tz": 1218,
      "Ġass": 1219,
      "ĠComm": 1220,
      "fin": 1221,
      "ĠNach": 1222,
      "je": 1223,
      "hand": 1224,
      "Ġpropos": 1225,
      "Ġ6": 1226,
      "oth": 1227,
      "Ġrequ": 1228,
      "Ġmo": 1229,
      "wir": 1230,
      "halb": 1231,
      "Ġfr": 1232,
      "fter": 1233,
      "any": 1234,
      "Ġtechn": 1235,
      "issen": 1236,
      "ives": 1237,
      "igung": 1238,
      "Ġposs": 1239,
      "Ġbecause": 1240,
      "Ã¶s": 1241,
      "ural": 1242,
      "lieÃŁ": 1243,
      "ence": 1244,
      "staaten": 1245,
      "Ġ'": 1246,
      "Ġzwischen": 1247,
      "ware": 1248,
      "Ġleg": 1249,
      "bst": 1250,
      "ĠBed": 1251,
      "ters": 1252,
      "ĠVerb": 1253,
      "Ġtake": 1254,
      "Ġfre": 1255,
      "Ġbereit": 1256,
      "legen": 1257,
      "Ã¶glich": 1258,
      "zie": 1259,
      "ĠPl": 1260,
      "ĠEntwick": 1261,
      "Ġkon": 1262,
      "Ġworld": 1263,
      "ĠFl": 1264,
      "ublic": 1265,
      "Ġmarket": 1266,
      "uer": 1267,
      "Ġpos": 1268,
      "tschaft": 1269,
      "ote": 1270,
      "ful": 1271,
      "arm": 1272,
      "Ġcre": 1273,
      "dr": 1274,
      "ĠEnt": 1275,
      "Ġmuss": 1276,
      "mal": 1277,
      "oint": 1278,
      "cted": 1279,
      "ever": 1280,
      "Ġfo": 1281,
      "rough": 1282,
      "blem": 1283,
      "Ġfind": 1284,
      "zial": 1285,
      "off": 1286,
      "weit": 1287,
      "ath": 1288,
      "Ġsel": 1289,
      "min": 1290,
      "ĠIntern": 1291,
      "ict": 1292,
      "amp": 1293,
      "lear": 1294,
      "hÃ¶r": 1295,
      "Ġop": 1296,
      "Ġson": 1297,
      "Ġunsere": 1298,
      "Ġpar": 1299,
      "Ġnational": 1300,
      "ount": 1301,
      "ĠAll": 1302,
      "omp": 1303,
      "dit": 1304,
      "Ġgood": 1305,
      "dem": 1306,
      "Ġwhere": 1307,
      "Ġkeine": 1308,
      "Ġmin": 1309,
      "ĠGes": 1310,
      "ality": 1311,
      "ĠIhre": 1312,
      "Ġgreat": 1313,
      "Ġbie": 1314,
      "Ġhand": 1315,
      "ĠUS": 1316,
      "vern": 1317,
      "nis": 1318,
      "Ġav": 1319,
      "Ġnat": 1320,
      "ĠIhnen": 1321,
      "ĠArt": 1322,
      "Ġtwo": 1323,
      "rag": 1324,
      "ĠMin": 1325,
      "eschÃ¤": 1326,
      "Ġinformation": 1327,
      "uring": 1328,
      "urn": 1329,
      "Ġemp": 1330,
      "ĠProdu": 1331,
      "rÃ¤": 1332,
      "ĠâĢŀ": 1333,
      "rauch": 1334,
      "achen": 1335,
      "Ġrem": 1336,
      "ium": 1337,
      "Ġevery": 1338,
      "Ã¶ff": 1339,
      "Ġeinz": 1340,
      "Ġverb": 1341,
      "Ġmade": 1342,
      "Ġyears": 1343,
      "Ġhad": 1344,
      "Ġconc": 1345,
      "ÃŁe": 1346,
      "ĠGrund": 1347,
      "Ġanderen": 1348,
      "stand": 1349,
      "amil": 1350,
      "rol": 1351,
      "hm": 1352,
      "Ġmein": 1353,
      "sel": 1354,
      "unkt": 1355,
      "Ġeven": 1356,
      "Ġend": 1357,
      "schie": 1358,
      "aut": 1359,
      "Ġthrough": 1360,
      "laub": 1361,
      "fort": 1362,
      "ĠIf": 1363,
      "air": 1364,
      "ĠEuropa": 1365,
      "Ġway": 1366,
      "Ġ199": 1367,
      "cept": 1368,
      "Ġiss": 1369,
      "Ġsystem": 1370,
      "Ġ[": 1371,
      "geben": 1372,
      "ĠÃĦ": 1373,
      "Ġthose": 1374,
      "Ġproduct": 1375,
      "Ġget": 1376,
      "ision": 1377,
      "ischer": 1378,
      "chten": 1379,
      "ĠZusammen": 1380,
      "lish": 1381,
      "ĠMitgliedstaaten": 1382,
      "forder": 1383,
      "Ġsee": 1384,
      "ession": 1385,
      "ĠFin": 1386,
      "âĢľ": 1387,
      "gend": 1388,
      "ĠRat": 1389,
      "ereich": 1390,
      "Ġsc": 1391,
      "ren": 1392,
      "Ã¤lt": 1393,
      "gung": 1394,
      "Ġ7": 1395,
      "Ġweiter": 1396,
      "Ġange": 1397,
      "ister": 1398,
      "stell": 1399,
      "ower": 1400,
      "ws": 1401,
      "ĠAm": 1402,
      "immer": 1403,
      "weise": 1404,
      "Ġimmer": 1405,
      "lag": 1406,
      "ganis": 1407,
      "ina": 1408,
      "day": 1409,
      "ys": 1410,
      "Ġorder": 1411,
      "Ġpolicy": 1412,
      "Ġmay": 1413,
      "ows": 1414,
      "erein": 1415,
      "Ġtak": 1416,
      "ĠSeit": 1417,
      "Ġdirect": 1418,
      "uÃŁer": 1419,
      "lick": 1420,
      "ĠWenn": 1421,
      "Ġdisc": 1422,
      "ument": 1423,
      "uman": 1424,
      "Ġdann": 1425,
      "ster": 1426,
      "ĠEx": 1427,
      "Ġ8": 1428,
      "hne": 1429,
      "Ġ10": 1430,
      "Ġright": 1431,
      "Ġac": 1432,
      "unity": 1433,
      "ituation": 1434,
      "ĠVorsch": 1435,
      "rif": 1436,
      "spr": 1437,
      "Ġbeing": 1438,
      "âĢĿ": 1439,
      "ivers": 1440,
      "ĠâĢľ": 1441,
      "ital": 1442,
      "Ġfact": 1443,
      "alls": 1444,
      "Ġbeste": 1445,
      "Ġbeg": 1446,
      "Ġnum": 1447,
      "ited": 1448,
      "chts": 1449,
      "ĠBes": 1450,
      "isen": 1451,
      "Ġrest": 1452,
      "Ġke": 1453,
      "ĠThere": 1454,
      "eration": 1455,
      "Ġbelie": 1456,
      "Ġparticular": 1457,
      "Ġappro": 1458,
      "Ġwieder": 1459,
      "Ġdiesen": 1460,
      "nahmen": 1461,
      "000": 1462,
      "Ġdiffer": 1463,
      "Ġdamit": 1464,
      "ĠWh": 1465,
      "ĠHaus": 1466,
      "Ġcent": 1467,
      "gest": 1468,
      "nung": 1469,
      "Ġcour": 1470,
      "Ġger": 1471,
      "Ġcar": 1472,
      "ionen": 1473,
      "ior": 1474,
      "istr": 1475,
      "com": 1476,
      "Ġtrans": 1477,
      "Ġzwe": 1478,
      "Ġinclud": 1479,
      "Ġwurden": 1480,
      "vor": 1481,
      "ĠBereich": 1482,
      "Ġganz": 1483,
      "Ġgesch": 1484,
      "Ġown": 1485,
      "ĠOn": 1486,
      "bal": 1487,
      "ĠGro": 1488,
      "aur": 1489,
      "ĠWelt": 1490,
      "eins": 1491,
      "ĠfÃ¼": 1492,
      "Ġprocess": 1493,
      "isse": 1494,
      "icherheit": 1495,
      "part": 1496,
      "ough": 1497,
      "Ġresp": 1498,
      "ĠFrau": 1499,
      "itt": 1500,
      "ĠDes": 1501,
      "eln": 1502,
      "iness": 1503,
      "Ġdel": 1504,
      "adt": 1505,
      "Ġknow": 1506,
      "ade": 1507,
      "Ġmon": 1508,
      "get": 1509,
      "10": 1510,
      "read": 1511,
      "innen": 1512,
      "zeich": 1513,
      "atter": 1514,
      "ĠIhr": 1515,
      "trag": 1516,
      "Ġcur": 1517,
      "ouse": 1518,
      "old": 1519,
      "ĠDiese": 1520,
      "Ã¤ndern": 1521,
      "Ġbus": 1522,
      "gramm": 1523,
      "elle": 1524,
      "ĠAt": 1525,
      "stitution": 1526,
      "Ġarea": 1527,
      "Ġquest": 1528,
      "Ġexp": 1529,
      "ler": 1530,
      "Ġmain": 1531,
      "zen": 1532,
      "oy": 1533,
      "Ġph": 1534,
      "Ġbu": 1535,
      "Ġkein": 1536,
      "schieden": 1537,
      "ĠHand": 1538,
      "itÃ¤": 1539,
      "Ġunserer": 1540,
      "az": 1541,
      "ool": 1542,
      "hin": 1543,
      "Ġagre": 1544,
      "alk": 1545,
      "ĠCon": 1546,
      "rechen": 1547,
      "ĠGeb": 1548,
      "Ġreal": 1549,
      "Ġ9": 1550,
      "round": 1551,
      "ix": 1552,
      "Ġhelp": 1553,
      "Ġhere": 1554,
      "Ġhabe": 1555,
      "Ġsm": 1556,
      "schafts": 1557,
      "Ġ...": 1558,
      "Ġsondern": 1559,
      "ĠZu": 1560,
      "Ġstand": 1561,
      "eth": 1562,
      "ĠYou": 1563,
      "Ġafter": 1564,
      "ĠGem": 1565,
      "Ġdeb": 1566,
      "Ġcomple": 1567,
      "Ġseine": 1568,
      "ĠInter": 1569,
      "ĠHer": 1570,
      "Ġjedoch": 1571,
      "leg": 1572,
      "Ġpolitical": 1573,
      "piel": 1574,
      "Ġform": 1575,
      "ests": 1576,
      "ince": 1577,
      "tegr": 1578,
      "gesch": 1579,
      "urs": 1580,
      "ĠEuropÃ¤ische": 1581,
      "ruck": 1582,
      "Ġpublic": 1583,
      "Ġplace": 1584,
      "Ġide": 1585,
      "Ġgut": 1586,
      "Ġincre": 1587,
      "eld": 1588,
      "ĠInformation": 1589,
      "Ġconcern": 1590,
      "Ġprote": 1591,
      "Ġpossible": 1592,
      "mittel": 1593,
      "ved": 1594,
      "Ġsame": 1595,
      "ĠBar": 1596,
      "ende": 1597,
      "ently": 1598,
      "ĠBÃ¼r": 1599,
      "Ġsim": 1600,
      "ax": 1601,
      "ktiv": 1602,
      "Ġausge": 1603,
      "Ġetw": 1604,
      "Ġclear": 1605,
      "Ġser": 1606,
      "ĠwÃ¼r": 1607,
      "iron": 1608,
      "bens": 1609,
      "Ã¶glichkeit": 1610,
      "ines": 1611,
      "schlieÃŁ": 1612,
      "ierte": 1613,
      "Ġneue": 1614,
      "Ġcould": 1615,
      "ata": 1616,
      "Ġhuman": 1617,
      "ĠInd": 1618,
      "tens": 1619,
      "ĠMan": 1620,
      "Ġwant": 1621,
      "eral": 1622,
      "Ġheute": 1623,
      "ĠBr": 1624,
      "Ġbef": 1625,
      "Ġdr": 1626,
      "ĠFre": 1627,
      "ĠSte": 1628,
      "line": 1629,
      "fach": 1630,
      "nder": 1631,
      "Ġnumber": 1632,
      "Ġcontin": 1633,
      "lagen": 1634,
      "Ġsay": 1635,
      "Ġoffer": 1636,
      "Ġeconomic": 1637,
      "Ġperson": 1638,
      "Ġdoes": 1639,
      "Ġest": 1640,
      "Ġgleich": 1641,
      "ven": 1642,
      "Ġthen": 1643,
      "Ġdevelopment": 1644,
      "ĠTeil": 1645,
      "Ġopp": 1646,
      "ertain": 1647,
      "Ġwithin": 1648,
      "isk": 1649,
      "Ġeffect": 1650,
      "ĠĠ": 1651,
      "ĠUnternehmen": 1652,
      "use": 1653,
      "Ġwen": 1654,
      "ÃŁnahmen": 1655,
      "iti": 1656,
      "ustr": 1657,
      "Ġrights": 1658,
      "ĠKolle": 1659,
      "ants": 1660,
      "osten": 1661,
      "tellt": 1662,
      "uro": 1663,
      "raft": 1664,
      "ĠFr": 1665,
      "ĠÃĦnder": 1666,
      "Ġbereits": 1667,
      "ĠFran": 1668,
      "ĠStr": 1669,
      "alen": 1670,
      "ics": 1671,
      "Ġavail": 1672,
      "Ġ15": 1673,
      "Ġtransp": 1674,
      "Ġexam": 1675,
      "Ġfest": 1676,
      "yp": 1677,
      "Ġselbst": 1678,
      "ĠSchl": 1679,
      "Ġagainst": 1680,
      "Ġohne": 1681,
      "Ã¤hl": 1682,
      "Ġmuch": 1683,
      "aup": 1684,
      "hip": 1685,
      "Ġmich": 1686,
      "ĠPre": 1687,
      "Ġsur": 1688,
      "Ġfund": 1689,
      "Ġboth": 1690,
      "Ġval": 1691,
      "Ġused": 1692,
      "erk": 1693,
      "ma": 1694,
      "ĠEntwicklung": 1695,
      "ĠBet": 1696,
      "bes": 1697,
      "Ġvis": 1698,
      "lage": 1699,
      "ander": 1700,
      "Ġprof": 1701,
      "ĠHow": 1702,
      "Ġtherefore": 1703,
      "icult": 1704,
      "Ġlang": 1705,
      "ock": 1706,
      "Ġihrer": 1707,
      "Ġwichtig": 1708,
      "licher": 1709,
      "lobal": 1710,
      "utions": 1711,
      "stru": 1712,
      "Ġlevel": 1713,
      "ĠGerm": 1714,
      "Ġsollte": 1715,
      "Ġvar": 1716,
      "Ġsign": 1717,
      "fern": 1718,
      "loy": 1719,
      "Ġhist": 1720,
      "ierten": 1721,
      "erung": 1722,
      "ĠIs": 1723,
      "Ġregion": 1724,
      "Ġmed": 1725,
      "que": 1726,
      "setz": 1727,
      "Ġneuen": 1728,
      "ife": 1729,
      "ĠeuropÃ¤ischen": 1730,
      "viron": 1731,
      "Ġequ": 1732,
      "ftware": 1733,
      "ustom": 1734,
      "ĠHin": 1735,
      "ds": 1736,
      "ulation": 1737,
      "Ġbring": 1738,
      "Ġpra": 1739,
      "Ġfun": 1740,
      "ĠWie": 1741,
      "ivid": 1742,
      "ĠVers": 1743,
      "stÃ¤nd": 1744,
      "ĠJahren": 1745,
      "ep": 1746,
      "Ġplay": 1747,
      "ĠRicht": 1748,
      "ux": 1749,
      "aff": 1750,
      "Ġfull": 1751,
      "Ã¤re": 1752,
      "Ġcr": 1753,
      "satz": 1754,
      "Ġandere": 1755,
      "Ġprovid": 1756,
      "br": 1757,
      "Ġbo": 1758,
      "Ġsocial": 1759,
      "reichen": 1760,
      "urg": 1761,
      "Ġcountry": 1762,
      "Ã¶ffent": 1763,
      "fahren": 1764,
      "ically": 1765,
      "agement": 1766,
      "Ġzwei": 1767,
      "eng": 1768,
      "way": 1769,
      "Ġbre": 1770,
      "Ġeigen": 1771,
      "Ã¶ÃŁ": 1772,
      "ittee": 1773,
      "net": 1774,
      "wert": 1775,
      "Ġconf": 1776,
      "Ġview": 1777,
      "kun": 1778,
      "Ġdenn": 1779,
      "Ġthink": 1780,
      "Ġfinan": 1781,
      "its": 1782,
      "cur": 1783,
      "Ġgroup": 1784,
      "Ġwithout": 1785,
      "Ġlast": 1786,
      "Ġletz": 1787,
      "Ġ18": 1788,
      "Ġpoint": 1789,
      "Ġstill": 1790,
      "wick": 1791,
      "vironment": 1792,
      "Ġexper": 1793,
      "work": 1794,
      "mb": 1795,
      "ĠKl": 1796,
      "ichte": 1797,
      "kehr": 1798,
      "Ã¤ng": 1799,
      "ets": 1800,
      "par": 1801,
      "Ġmeas": 1802,
      "under": 1803,
      "Ġens": 1804,
      "Ġdenen": 1805,
      "immt": 1806,
      "over": 1807,
      "ĠMon": 1808,
      "Ġ12": 1809,
      "eut": 1810,
      "ĠSicherheit": 1811,
      "Ġsollten": 1812,
      "Ġoper": 1813,
      "Ġconsider": 1814,
      "iver": 1815,
      "Ġadv": 1816,
      "esse": 1817,
      "Ġdifferent": 1818,
      "Ġservices": 1819,
      "ĠGen": 1820,
      "ĠFrage": 1821,
      "Ġfinden": 1822,
      "Ġlong": 1823,
      "Ġaccess": 1824,
      "gar": 1825,
      "ĠFe": 1826,
      "Ġgemeins": 1827,
      "Ġpriv": 1828,
      "ffen": 1829,
      "Ġmod": 1830,
      "nahme": 1831,
      "ĠmÃ¶glich": 1832,
      "Ġopt": 1833,
      "fra": 1834,
      "ize": 1835,
      "esen": 1836,
      "entral": 1837,
      "lichkeit": 1838,
      "ists": 1839,
      "ĠPart": 1840,
      "wort": 1841,
      "Ġverschieden": 1842,
      "ohl": 1843,
      "Ġspec": 1844,
      "ER": 1845,
      "res": 1846,
      "Ġers": 1847,
      "ondere": 1848,
      "Ã¤hrend": 1849,
      "hor": 1850,
      "ness": 1851,
      "Ġdown": 1852,
      "ĠPerson": 1853,
      "ationen": 1854,
      "Ġprin": 1855,
      "zeug": 1856,
      "Ġgovern": 1857,
      "Ġfree": 1858,
      "Ġatt": 1859,
      "man": 1860,
      "ritt": 1861,
      "ollow": 1862,
      "Ġavailable": 1863,
      "Ġcap": 1864,
      "Ġgel": 1865,
      "ope": 1866,
      "richt": 1867,
      "Ġrequire": 1868,
      "ĠBÃ¼rger": 1869,
      "aking": 1870,
      "ĠunterstÃ¼tz": 1871,
      "Ġable": 1872,
      "Ġback": 1873,
      "war": 1874,
      "uture": 1875,
      "ude": 1876,
      "ĠDaten": 1877,
      "orte": 1878,
      "Ġbietet": 1879,
      "hol": 1880,
      "ibility": 1881,
      "akt": 1882,
      "ĠTra": 1883,
      "Ġkle": 1884,
      "ready": 1885,
      "atur": 1886,
      "Ġcurr": 1887,
      "ĠKont": 1888,
      "zahl": 1889,
      "pf": 1890,
      "ised": 1891,
      "urther": 1892,
      "ting": 1893,
      "ability": 1894,
      "iÃŁ": 1895,
      "Ġspecial": 1896,
      "Ġbusiness": 1897,
      "alth": 1898,
      "Ġdazu": 1899,
      "ience": 1900,
      "yn": 1901,
      "vers": 1902,
      "ystems": 1903,
      "ĠDem": 1904,
      "Ġsmall": 1905,
      "Ġbefore": 1906,
      "ator": 1907,
      "Ġlook": 1908,
      "gem": 1909,
      "Ġliegt": 1910,
      "Ġviele": 1911,
      "ispiel": 1912,
      "afÃ¼r": 1913,
      "Ġmachen": 1914,
      "Ġallen": 1915,
      "ĠKommiss": 1916,
      "Ġcustom": 1917,
      "ppen": 1918,
      "ienst": 1919,
      "ĠAut": 1920,
      "Ġweil": 1921,
      "Ġben": 1922,
      "Ġpers": 1923,
      "Ġalready": 1924,
      "Ġfuture": 1925,
      "Ġgest": 1926,
      "Ġaller": 1927,
      "Ġbelieve": 1928,
      "ĠMittel": 1929,
      "loss": 1930,
      "Ġze": 1931,
      "ders": 1932,
      "Ġair": 1933,
      "Ġcor": 1934,
      "ahmen": 1935,
      "aben": 1936,
      "une": 1937,
      "ward": 1938,
      "ins": 1939,
      "Ġbek": 1940,
      "tem": 1941,
      "ahre": 1942,
      "press": 1943,
      "ktur": 1944,
      "ĠStand": 1945,
      "cond": 1946,
      "ased": 1947,
      "ctor": 1948,
      "ilt": 1949,
      "Ġsom": 1950,
      "Ġhal": 1951,
      "ctions": 1952,
      "Ġseiner": 1953,
      "]]": 1954,
      "zug": 1955,
      "ves": 1956,
      "Ġcourse": 1957,
      "Ġopen": 1958,
      "Ġtoday": 1959,
      "ĠkÃ¶nn": 1960,
      "Ġdarauf": 1961,
      "ĠThat": 1962,
      "Ġdesign": 1963,
      "gramme": 1964,
      "kten": 1965,
      "esell": 1966,
      "Ġproject": 1967,
      "ante": 1968,
      "agen": 1969,
      "jor": 1970,
      "Ġset": 1971,
      "ismus": 1972,
      "annt": 1973,
      "welt": 1974,
      "ĠMÃ¶glichkeit": 1975,
      "ĠBut": 1976,
      "Ġtoo": 1977,
      "Ġjetzt": 1978,
      "ĠZiel": 1979,
      "Ġinst": 1980,
      "ĠRo": 1981,
      "Ã¤h": 1982,
      "ving": 1983,
      "Ġcann": 1984,
      "Ã¤ÃŁ": 1985,
      "Ġproducts": 1986,
      "Ġet": 1987,
      "Ġservice": 1988,
      "ĠThem": 1989,
      "aher": 1990,
      "ĠFinanz": 1991,
      "ĠgrÃ¶ÃŁ": 1992,
      "Ġeing": 1993,
      "Ġenvironment": 1994,
      "ron": 1995,
      "ĠTo": 1996,
      "Ġfl": 1997,
      "omen": 1998,
      "imin": 1999,
      "itiz": 2000,
      "Ġrespons": 2001,
      "hÃ¤lt": 2002,
      "ĠLage": 2003,
      "ica": 2004,
      "Ġcannot": 2005,
      "Ġfac": 2006,
      "cr": 2007,
      "ĠRahmen": 2008,
      "Ġcertain": 2009,
      "nisse": 2010,
      "zus": 2011,
      "curity": 2012,
      "come": 2013,
      "Ġdata": 2014,
      "mar": 2015,
      "Ġgeht": 2016,
      "Ġgeb": 2017,
      "ĠMaÃŁnahmen": 2018,
      "Ġprev": 2019,
      "tend": 2020,
      "Ã¶l": 2021,
      "other": 2022,
      "Ġschon": 2023,
      "lease": 2024,
      "aterial": 2025,
      "ĠMed": 2026,
      "Ġeinfach": 2027,
      "Ġmir": 2028,
      "olution": 2029,
      "Ġint": 2030,
      "ĠInformationen": 2031,
      "Ġfollow": 2032,
      "okrat": 2033,
      "Ġredu": 2034,
      "Ġseit": 2035,
      "Ġfra": 2036,
      "Ġbro": 2037,
      "ately": 2038,
      "Ġcase": 2039,
      "Ġ0": 2040,
      "ĠAnd": 2041,
      "Ġbin": 2042,
      "chie": 2043,
      "Ġindivid": 2044,
      "operation": 2045,
      "ĠMein": 2046,
      "los": 2047,
      "iving": 2048,
      "Ġneg": 2049,
      "Ġoffers": 2050,
      "Ġkl": 2051,
      "ĠVerein": 2052,
      "co": 2053,
      "Ġeinige": 2054,
      "ĠRechts": 2055,
      "olid": 2056,
      "ĠdafÃ¼r": 2057,
      "Ġregard": 2058,
      "ĠEnerg": 2059,
      "klÃ¤r": 2060,
      "Ġ[[": 2061,
      "Ġeas": 2062,
      "Ġput": 2063,
      "Ġ&": 2064,
      "Ġimpro": 2065,
      "ars": 2066,
      "abei": 2067,
      "Ġquestion": 2068,
      "orn": 2069,
      "tain": 2070,
      "ĠGemein": 2071,
      "raph": 2072,
      "ĠHerrn": 2073,
      "red": 2074,
      "affen": 2075,
      "ĠCommissioner": 2076,
      "Ġvoll": 2077,
      "ungsant": 2078,
      "Ġart": 2079,
      "ential": 2080,
      "Ã¤tz": 2081,
      "ĠTran": 2082,
      "ccess": 2083,
      "Ġter": 2084,
      "Ġje": 2085,
      "EN": 2086,
      "ĠPol": 2087,
      "iber": 2088,
      "ĠInternet": 2089,
      "ually": 2090,
      "ervice": 2091,
      "ĠRuss": 2092,
      "Ġintegr": 2093,
      "isierung": 2094,
      "ified": 2095,
      "ilit": 2096,
      "folg": 2097,
      "eich": 2098,
      "Ġfinancial": 2099,
      "Ġcity": 2100,
      "imes": 2101,
      "Ġreas": 2102,
      "Ġimple": 2103,
      "Ġchange": 2104,
      "Ġrepr": 2105,
      "ahn": 2106,
      "Ġposit": 2107,
      "ĠAmer": 2108,
      "ĠAussch": 2109,
      "ĠStadt": 2110,
      "Ġduring": 2111,
      "grund": 2112,
      "allen": 2113,
      "Ġ%": 2114,
      "ichten": 2115,
      "ĠZimmer": 2116,
      "Ġrev": 2117,
      "Ġcitiz": 2118,
      "utes": 2119,
      "ĠzurÃ¼ck": 2120,
      "Ġihren": 2121,
      "llt": 2122,
      "Ã¼h": 2123,
      "Ã¼nd": 2124,
      "Ġfar": 2125,
      "Ġactiv": 2126,
      "anden": 2127,
      "Ġproblem": 2128,
      "Ġprom": 2129,
      "lex": 2130,
      "Ġinvest": 2131,
      "Ġday": 2132,
      "ove": 2133,
      "ucht": 2134,
      "Ġfol": 2135,
      "Ġsaid": 2136,
      "Ġdeut": 2137,
      "Ġallem": 2138,
      "ĠJahre": 2139,
      "Ġimp": 2140,
      "20": 2141,
      "cing": 2142,
      "ather": 2143,
      "inen": 2144,
      "ichter": 2145,
      "amm": 2146,
      "Ġnun": 2147,
      "Ġlarge": 2148,
      "Ġglobal": 2149,
      "ĠWor": 2150,
      "Ġstat": 2151,
      "ĠUns": 2152,
      "uchen": 2153,
      "Ġmeans": 2154,
      "Ġachie": 2155,
      "Ġ2009": 2156,
      "200": 2157,
      "Ġissue": 2158,
      "Ġenerg": 2159,
      "ĠSh": 2160,
      "kunft": 2161,
      "Ġproposal": 2162,
      "Ġsaf": 2163,
      "Ġel": 2164,
      "bsite": 2165,
      "aum": 2166,
      "Ġexample": 2167,
      "ily": 2168,
      "Ġask": 2169,
      "iele": 2170,
      "scheid": 2171,
      "ĠBei": 2172,
      "lossen": 2173,
      "Ã¤m": 2174,
      "ĠÃĸ": 2175,
      "Ġmeine": 2176,
      "Ġquality": 2177,
      "Ġzusammen": 2178,
      "isl": 2179,
      "reib": 2180,
      "nov": 2181,
      "Ġapplic": 2182,
      "ways": 2183,
      "Ġmajor": 2184,
      "so": 2185,
      "Ġcost": 2186,
      "Ġmember": 2187,
      "besondere": 2188,
      "Ġmodern": 2189,
      "Ġfamil": 2190,
      "Ġentsp": 2191,
      "halts": 2192,
      "heiten": 2193,
      "Ġgef": 2194,
      "ĠFÃ¼r": 2195,
      "Ġmeet": 2196,
      "Ġsince": 2197,
      "Ġbesch": 2198,
      "illion": 2199,
      "punkt": 2200,
      "Ġpresent": 2201,
      "udget": 2202,
      "gress": 2203,
      "Ġsituation": 2204,
      "Ġrooms": 2205,
      "Ġbesonder": 2206,
      "aupt": 2207,
      "Ġstrateg": 2208,
      "Ġdebate": 2209,
      "ĠGo": 2210,
      "iend": 2211,
      "Ġnecess": 2212,
      "ites": 2213,
      "ether": 2214,
      "unter": 2215,
      "ĠverfÃ¼": 2216,
      "ĠHowever": 2217,
      "Ġwollen": 2218,
      "Ġsicher": 2219,
      "ized": 2220,
      "Ġunseren": 2221,
      "amer": 2222,
      "ird": 2223,
      "fÃ¼hrt": 2224,
      "ĠKin": 2225,
      "antwort": 2226,
      "ĠGew": 2227,
      "ĠPal": 2228,
      "org": 2229,
      "aat": 2230,
      "Ã¡": 2231,
      "Ġtechnolog": 2232,
      "ĠEine": 2233,
      "ĠBo": 2234,
      "Ġeinge": 2235,
      "ĠAd": 2236,
      "ash": 2237,
      "ilities": 2238,
      "leist": 2239,
      "Ġchild": 2240,
      "fts": 2241,
      "oren": 2242,
      "ule": 2243,
      "ktionen": 2244,
      "ĠOur": 2245,
      "ĠKommissar": 2246,
      "Ġcontr": 2247,
      "Ġamend": 2248,
      "Ġcommon": 2249,
      "Ġeng": 2250,
      "blems": 2251,
      "ĠwÃ¼rde": 2252,
      "eschÃ¤ft": 2253,
      "ĠWith": 2254,
      "ĠSpe": 2255,
      "angen": 2256,
      "pre": 2257,
      "Ġeach": 2258,
      "Ġadop": 2259,
      "Ġche": 2260,
      "ĠBest": 2261,
      "etzen": 2262,
      "Ġpass": 2263,
      "Ġincluding": 2264,
      "licht": 2265,
      "haf": 2266,
      "ĠGesch": 2267,
      "ĠPh": 2268,
      "fass": 2269,
      "Ġgar": 2270,
      "omat": 2271,
      "Ġpower": 2272,
      "ĠCommittee": 2273,
      "ĠGer": 2274,
      "Ġcompet": 2275,
      "ĠWer": 2276,
      "ell": 2277,
      "ĠEng": 2278,
      "ache": 2279,
      "immung": 2280,
      "ĠArbeits": 2281,
      "Ġcitizens": 2282,
      "ĠParlaments": 2283,
      "reit": 2284,
      "Ġcolle": 2285,
      "ĠPolitik": 2286,
      "Ġref": 2287,
      "cip": 2288,
      "vention": 2289,
      "ĠwÃ¤hrend": 2290,
      "tellen": 2291,
      "Ġ30": 2292,
      "Ġstehen": 2293,
      "Ġetwas": 2294,
      "genommen": 2295,
      "tt": 2296,
      "opp": 2297,
      "Ġthree": 2298,
      "bed": 2299,
      "aurant": 2300,
      "ablish": 2301,
      "Ġstay": 2302,
      "ĠForm": 2303,
      "ĠUr": 2304,
      "Ġsagen": 2305,
      "Ġfound": 2306,
      "Ġallow": 2307,
      "Ġauthor": 2308,
      "ining": 2309,
      "Ġareas": 2310,
      "ipp": 2311,
      "gew": 2312,
      "Ġobject": 2313,
      "Ġcult": 2314,
      "ains": 2315,
      "Ġrespect": 2316,
      "Ġnext": 2317,
      "ĠVorschlag": 2318,
      "Ġmeasures": 2319,
      "orth": 2320,
      "gangen": 2321,
      "ĠUnd": 2322,
      "Ġ/": 2323,
      "ĠEuro": 2324,
      "Ġstud": 2325,
      "Ġdoch": 2326,
      "ĠRes": 2327,
      "¿½": 2328,
      "ï¿½": 2329,
      "Ġsozial": 2330,
      "ĠBild": 2331,
      "Ġgive": 2332,
      "oten": 2333,
      "Ġorganis": 2334,
      "zept": 2335,
      "Ġfew": 2336,
      "Ġbr": 2337,
      "ĠÐ": 2338,
      "zw": 2339,
      "ode": 2340,
      "ordnung": 2341,
      "ugen": 2342,
      "Ġrece": 2343,
      "Ġdemoc": 2344,
      "ĠÂ": 2345,
      "ands": 2346,
      "Ġensure": 2347,
      "uge": 2348,
      "linie": 2349,
      "Ġresult": 2350,
      "Ġdiscuss": 2351,
      "Ġkomm": 2352,
      "asch": 2353,
      "rache": 2354,
      "Ġerm": 2355,
      "ught": 2356,
      "Ġfurther": 2357,
      "Ġprovide": 2358,
      "Ġhistor": 2359,
      "Ã¼rlich": 2360,
      "Ġenergy": 2361,
      "Ġthank": 2362,
      "Ġpres": 2363,
      "ination": 2364,
      "ĠDeut": 2365,
      "ĠLÃ¤nder": 2366,
      "Ġtun": 2367,
      "schaften": 2368,
      "Ġwissen": 2369,
      "iff": 2370,
      "In": 2371,
      "gleich": 2372,
      "Ġtaken": 2373,
      "Ġerst": 2374,
      "Ġinsbesondere": 2375,
      "Ġsuccess": 2376,
      "ĠMill": 2377,
      "Ġfil": 2378,
      "Ġbuild": 2379,
      "falls": 2380,
      "Ġmus": 2381,
      "unde": 2382,
      "Ġdra": 2383,
      "ĠUnterstÃ¼tz": 2384,
      "Ġagreement": 2385,
      "Ġcal": 2386,
      "ĠDurch": 2387,
      "Ġerhalten": 2388,
      "Ġcontrol": 2389,
      "Ġkom": 2390,
      "stellung": 2391,
      "anken": 2392,
      "schl": 2393,
      "Ġaddition": 2394,
      "iate": 2395,
      "ĠLÃ¶s": 2396,
      "Ġeinmal": 2397,
      "ek": 2398,
      "ĠVerfÃ¼": 2399,
      "agt": 2400,
      "Ġwaren": 2401,
      "indet": 2402,
      "Ġgrow": 2403,
      "Ġemploy": 2404,
      "ziel": 2405,
      "itor": 2406,
      "ĠChina": 2407,
      "ĠÃ¶ffent": 2408,
      "ĠQual": 2409,
      "Ġdet": 2410,
      "trÃ¤": 2411,
      "lungs": 2412,
      "ĠQu": 2413,
      "ĠFall": 2414,
      "Ġpay": 2415,
      "ases": 2416,
      "gre": 2417,
      "ĠauÃŁer": 2418,
      "Ġestablish": 2419,
      "Ġposition": 2420,
      "igin": 2421,
      "ĠProblem": 2422,
      "por": 2423,
      "ilfe": 2424,
      "Ġread": 2425,
      "cken": 2426,
      "ĠRest": 2427,
      "Ġabs": 2428,
      "legt": 2429,
      "itÃ¤ten": 2430,
      "Ġkommen": 2431,
      "ĠItal": 2432,
      "ĠKunden": 2433,
      "ĠTechn": 2434,
      "ĠZug": 2435,
      "ĠBl": 2436,
      "gang": 2437,
      "ditions": 2438,
      "igten": 2439,
      "Ġlaw": 2440,
      "Ġvo": 2441,
      "ĠGroup": 2442,
      "ohn": 2443,
      "uff": 2444,
      "Ġbeim": 2445,
      "Ġdu": 2446,
      "Ġcome": 2447,
      "Ġlink": 2448,
      "ules": 2449,
      "bo": 2450,
      "pend": 2451,
      "Ġpop": 2452,
      "ling": 2453,
      "Ġopport": 2454,
      "Ġ11": 2455,
      "Ġsk": 2456,
      "Ġinde": 2457,
      "jekt": 2458,
      "ĠMarkt": 2459,
      "arte": 2460,
      "aren": 2461,
      "arn": 2462,
      "Ġersten": 2463,
      "Ġshall": 2464,
      "ums": 2465,
      "Ġproblems": 2466,
      "ĠMus": 2467,
      "Ġho": 2468,
      "rop": 2469,
      "Ġ25": 2470,
      "ements": 2471,
      "Ġverw": 2472,
      "ross": 2473,
      "ĠZusammenarbeit": 2474,
      "Ġcompany": 2475,
      "Ġnecessary": 2476,
      "uten": 2477,
      "ĠUnterstÃ¼tzung": 2478,
      "Ġdid": 2479,
      "igkeiten": 2480,
      "ĠSchw": 2481,
      "Ġ14": 2482,
      "Ġschw": 2483,
      "Ġterr": 2484,
      "Ġlassen": 2485,
      "arten": 2486,
      "utzen": 2487,
      "Ġprincip": 2488,
      "Ġ|": 2489,
      "ruct": 2490,
      "politik": 2491,
      "esser": 2492,
      "unic": 2493,
      "Ġkey": 2494,
      "ott": 2495,
      "fre": 2496,
      "Ġbegr": 2497,
      "Ġdrei": 2498,
      "med": 2499,
      "umen": 2500,
      "Ġgiven": 2501,
      "ises": 2502,
      "ĠgroÃŁ": 2503,
      "ĠX": 2504,
      "ĠSpiel": 2505,
      "lemen": 2506,
      "Ġlegisl": 2507,
      "Ġbudget": 2508,
      "ĠNamen": 2509,
      "ĠÃ¤": 2510,
      "Ġsecurity": 2511,
      "fung": 2512,
      "Ġpract": 2513,
      "AT": 2514,
      "tschafts": 2515,
      "Ġem": 2516,
      "bau": 2517,
      "elf": 2518,
      "ĠCl": 2519,
      "Ġgeben": 2520,
      "ĠMad": 2521,
      "glichen": 2522,
      "Ġinvol": 2523,
      "fang": 2524,
      "ichts": 2525,
      "esellschaft": 2526,
      "Ġhealth": 2527,
      "Ġwirk": 2528,
      "Ġret": 2529,
      "ĠLa": 2530,
      "Ã¶rder": 2531,
      "Ġhope": 2532,
      "ĠUmwelt": 2533,
      "ĠÃĦnderungsant": 2534,
      "ĠProble": 2535,
      "ĠStra": 2536,
      "Ġwhy": 2537,
      "Ġhowever": 2538,
      "ising": 2539,
      "Ġsecond": 2540,
      "Ġentwick": 2541,
      "Ġchar": 2542,
      "lungen": 2543,
      "AN": 2544,
      "Ġlead": 2545,
      "orgen": 2546,
      "asse": 2547,
      "burg": 2548,
      "Ġverl": 2549,
      "bewer": 2550,
      "joy": 2551,
      "iety": 2552,
      "iter": 2553,
      "ively": 2554,
      "Ġwhile": 2555,
      "isation": 2556,
      "ĠTr": 2557,
      "ĠRecht": 2558,
      "wards": 2559,
      "fte": 2560,
      "ared": 2561,
      "Ġcooperation": 2562,
      "Ġbl": 2563,
      "Ġbesteht": 2564,
      "urz": 2565,
      "Ġ16": 2566,
      "lect": 2567,
      "gether": 2568,
      "nell": 2569,
      "Ġwirtschaft": 2570,
      "Ġir": 2571,
      "rodu": 2572,
      "fÃ¼hrung": 2573,
      "Ġlocated": 2574,
      "ave": 2575,
      "Ġwish": 2576,
      "Ġander": 2577,
      "ĠDeb": 2578,
      "orm": 2579,
      "Ġstart": 2580,
      "ĠDienst": 2581,
      "Ġgra": 2582,
      "Ġlife": 2583,
      "ald": 2584,
      "Ġprotection": 2585,
      "IN": 2586,
      "ES": 2587,
      "Ġimplement": 2588,
      "ĠTag": 2589,
      "schied": 2590,
      "Ġtradition": 2591,
      "ches": 2592,
      "Ġrefer": 2593,
      "ĠLÃ¤ndern": 2594,
      "ury": 2595,
      "Ġalways": 2596,
      "altung": 2597,
      "ĠfÃ¼hren": 2598,
      "Ġneeds": 2599,
      "Ġcomplete": 2600,
      "ĠSw": 2601,
      "ĠKo": 2602,
      "wendung": 2603,
      "ĠGeschÃ¤": 2604,
      "von": 2605,
      "Ġsteht": 2606,
      "Ġwrit": 2607,
      "text": 2608,
      "Ġsehen": 2609,
      "Ġseinen": 2610,
      "Ġ17": 2611,
      "ried": 2612,
      "zieh": 2613,
      "ĠFragen": 2614,
      "ĠVol": 2615,
      "ĠDa": 2616,
      "Ġinform": 2617,
      "Ġvote": 2618,
      "ĠSystem": 2619,
      "kon": 2620,
      "ĠPort": 2621,
      "ĠThey": 2622,
      "ĠRed": 2623,
      "ty": 2624,
      "earch": 2625,
      "ique": 2626,
      "Ġcomb": 2627,
      "Ġstatt": 2628,
      "ogen": 2629,
      "Ġbeh": 2630,
      "ĠHouse": 2631,
      "hÃ¤ng": 2632,
      "ĠOb": 2633,
      "ĠBesch": 2634,
      "ppe": 2635,
      "Ġsens": 2636,
      "Ã¶t": 2637,
      "Ġakt": 2638,
      "Ġdiff": 2639,
      "ĠUnited": 2640,
      "ĠBel": 2641,
      "ĠDar": 2642,
      "cell": 2643,
      "Ġbetter": 2644,
      "ĠwÃ¤re": 2645,
      "kre": 2646,
      "Ã¤tze": 2647,
      "tion": 2648,
      "stellen": 2649,
      "ustrie": 2650,
      "Ġmult": 2651,
      "ĠBeit": 2652,
      "ivil": 2653,
      "ca": 2654,
      "dress": 2655,
      "ettbewer": 2656,
      "Ġdabei": 2657,
      "ichterst": 2658,
      "Ġtre": 2659,
      "zess": 2660,
      "Ã¤d": 2661,
      "ctive": 2662,
      "Ġaction": 2663,
      "by": 2664,
      "Ġinterest": 2665,
      "schein": 2666,
      "gaben": 2667,
      "Ġaccount": 2668,
      "alle": 2669,
      "ĠKollegen": 2670,
      "ĠLebens": 2671,
      "ĠNot": 2672,
      "arch": 2673,
      "ialog": 2674,
      "Ġglaub": 2675,
      "iation": 2676,
      "Ġnet": 2677,
      "ĠgehÃ¶r": 2678,
      "spro": 2679,
      "zÃ¼": 2680,
      "Ġ2008": 2681,
      "Ġ2010": 2682,
      "Ġmen": 2683,
      "ĠhÃ¶": 2684,
      "ĠKr": 2685,
      "Ġlegal": 2686,
      "bereich": 2687,
      "Ġfiel": 2688,
      "Ã¤mp": 2689,
      "Ġusing": 2690,
      "cher": 2691,
      "Ġletzten": 2692,
      "iste": 2693,
      "Ġcho": 2694,
      "ĠEnergie": 2695,
      "Ġfav": 2696,
      "rechte": 2697,
      "Ġworden": 2698,
      "ĠCommunity": 2699,
      "sequ": 2700,
      "ĠRegierung": 2701,
      "ĠKom": 2702,
      "Ġdefin": 2703,
      "uft": 2704,
      "ĠmuÃŁ": 2705,
      "enten": 2706,
      "blick": 2707,
      "ikan": 2708,
      "iod": 2709,
      "less": 2710,
      "ĠBedeut": 2711,
      "obil": 2712,
      "Ġble": 2713,
      "ierungs": 2714,
      "Ġ50": 2715,
      "Ġmov": 2716,
      "undheit": 2717,
      "Ġsing": 2718,
      "Ġconsum": 2719,
      "eite": 2720,
      "rÃ¤n": 2721,
      "St": 2722,
      "gehen": 2723,
      "ingungen": 2724,
      "clus": 2725,
      "Ġreach": 2726,
      "ĠSk": 2727,
      "Ġbased": 2728,
      "Ġaround": 2729,
      "Ġ13": 2730,
      "ĠWas": 2731,
      "Ġconne": 2732,
      "ustry": 2733,
      "Ġtransport": 2734,
      "Ã¶lk": 2735,
      "ĠgroÃŁen": 2736,
      "ĠSer": 2737,
      "iges": 2738,
      "gabe": 2739,
      "Ġderen": 2740,
      "abil": 2741,
      "ĠMrs": 2742,
      "ĠVerfÃ¼gung": 2743,
      "asser": 2744,
      "ĠgroÃŁe": 2745,
      "gestellt": 2746,
      "ĠRom": 2747,
      "Ġwelche": 2748,
      "ĠWhat": 2749,
      "markt": 2750,
      "Ġterms": 2751,
      "Ġworking": 2752,
      "genden": 2753,
      "Ġcurrent": 2754,
      "Ġadd": 2755,
      "ify": 2756,
      "ĠEntscheid": 2757,
      "Ġmet": 2758,
      "ĠGu": 2759,
      "ĠBedeutung": 2760,
      "ĠUSA": 2761,
      "Ġrep": 2762,
      "pecial": 2763,
      "Ġinner": 2764,
      "ĠSeite": 2765,
      "ervor": 2766,
      "ged": 2767,
      "Ġproduction": 2768,
      "Ġshort": 2769,
      "ĠErgeb": 2770,
      "ĠFamil": 2771,
      "Ġbecome": 2772,
      "Ġrapp": 2773,
      "ĠRegion": 2774,
      "lev": 2775,
      "ĠHier": 2776,
      "Ġwhether": 2777,
      "racht": 2778,
      "ĠWhen": 2779,
      "uments": 2780,
      "offe": 2781,
      "Ġless": 2782,
      "Ġparticularly": 2783,
      "isher": 2784,
      "Ġcrit": 2785,
      "Ġnon": 2786,
      "eder": 2787,
      "Ġcentre": 2788,
      "ĠThese": 2789,
      "hof": 2790,
      "Ġlim": 2791,
      "Ġindividual": 2792,
      "Ġextre": 2793,
      "Ġdef": 2794,
      "Ġtogether": 2795,
      "Ġdifficult": 2796,
      "Ġbel": 2797,
      "of": 2798,
      "Ġvisit": 2799,
      "Ġanother": 2800,
      "ĠAber": 2801,
      "Ġnear": 2802,
      "Ġsl": 2803,
      "uter": 2804,
      "load": 2805,
      "ĠFol": 2806,
      "Ã¼nst": 2807,
      "ferenz": 2808,
      "ĠInternational": 2809,
      "kauf": 2810,
      "Ġdist": 2811,
      "Ġstate": 2812,
      "Ġ24": 2813,
      "ĠSchutz": 2814,
      "bild": 2815,
      "Ġtrade": 2816,
      "immen": 2817,
      "Ġwater": 2818,
      "Ġzahl": 2819,
      "osition": 2820,
      "druck": 2821,
      "Ġclos": 2822,
      "ĠAuch": 2823,
      "igent": 2824,
      "Ġ100": 2825,
      "Ġhim": 2826,
      "ĠKinder": 2827,
      "Ġresearch": 2828,
      "ĠBus": 2829,
      "ĠAls": 2830,
      "anies": 2831,
      "Ġear": 2832,
      "Ġcare": 2833,
      "Ġrapporte": 2834,
      "ĠTur": 2835,
      "Ġchildren": 2836,
      "ĠBen": 2837,
      "ĠAir": 2838,
      "ĠRegel": 2839,
      "ĠBeispiel": 2840,
      "Ġbene": 2841,
      "Ġbeach": 2842,
      "Ġnotwend": 2843,
      "Ġcontrib": 2844,
      "Ġwhole": 2845,
      "bene": 2846,
      "Ġexist": 2847,
      "ĠVertrag": 2848,
      "ĠMal": 2849,
      "ĠBerichterst": 2850,
      "pecially": 2851,
      "tellung": 2852,
      "Ġtour": 2853,
      "Ð¾": 2854,
      "Ġissues": 2855,
      "room": 2856,
      "Ġlocal": 2857,
      "Ġjeder": 2858,
      "Ġbieten": 2859,
      "ners": 2860,
      "Ġhervor": 2861,
      "akes": 2862,
      "astr": 2863,
      "Ġ2007": 2864,
      "ĠUN": 2865,
      "bt": 2866,
      "Ġdavon": 2867,
      "ĠThema": 2868,
      "iar": 2869,
      "xim": 2870,
      "Ġconditions": 2871,
      "ĠService": 2872,
      "entrum": 2873,
      "arante": 2874,
      "ots": 2875,
      "ĠZahl": 2876,
      "Ġspecific": 2877,
      "Ġfriend": 2878,
      "ckt": 2879,
      "Ã¼t": 2880,
      "leit": 2881,
      "Ġreason": 2882,
      "Ġricht": 2883,
      "ĠdarÃ¼ber": 2884,
      "ames": 2885,
      "Ġentfern": 2886,
      "atte": 2887,
      "Ġkm": 2888,
      "ON": 2889,
      "ĠWirtschafts": 2890,
      "Ġerforder": 2891,
      "Ġenjoy": 2892,
      "iew": 2893,
      "Ġcall": 2894,
      "ultur": 2895,
      "ĠStud": 2896,
      "Ġeben": 2897,
      "ĠSan": 2898,
      "Ġaff": 2899,
      "Ġshow": 2900,
      "ording": 2901,
      "Ġsubject": 2902,
      "vest": 2903,
      "orts": 2904,
      "Ġbook": 2905,
      "Ġstellen": 2906,
      "Ġann": 2907,
      "Ġbew": 2908,
      "ĠgegenÃ¼ber": 2909,
      "hÃ¶": 2910,
      "ĠNo": 2911,
      "rieden": 2912,
      "adies": 2913,
      "Ġaddress": 2914,
      "kungen": 2915,
      "Ġdaher": 2916,
      "Ġalles": 2917,
      "Ġsystems": 2918,
      "ody": 2919,
      "ton": 2920,
      "ĠGÃ¤": 2921,
      "ĠProbleme": 2922,
      "ĠFrauen": 2923,
      "Ġrole": 2924,
      "ika": 2925,
      "Ġtax": 2926,
      "Ġvarious": 2927,
      "ĠEl": 2928,
      "ikel": 2929,
      "ennt": 2930,
      "ours": 2931,
      "Ġschnell": 2932,
      "ĠWeise": 2933,
      "Ġbrauch": 2934,
      "ufen": 2935,
      "ategor": 2936,
      "ĠFahr": 2937,
      "ails": 2938,
      "Ġeigenen": 2939,
      "Ġrun": 2940,
      "ĠEUR": 2941,
      "ĠViel": 2942,
      "Ġexperience": 2943,
      "ĠLie": 2944,
      "fÃ¤h": 2945,
      "Ġwomen": 2946,
      "Ġgesam": 2947,
      "wirtschaft": 2948,
      "Ġorgan": 2949,
      "ĠComp": 2950,
      "gemein": 2951,
      "Ġpage": 2952,
      "ĠGerman": 2953,
      "Ġcompanies": 2954,
      "veral": 2955,
      "Ġsowohl": 2956,
      "Ġold": 2957,
      "Ġstep": 2958,
      "Ġur": 2959,
      "Ġindustry": 2960,
      "ĠMark": 2961,
      "ĠWahl": 2962,
      "ĠHaushalts": 2963,
      "isches": 2964,
      "ĠFort": 2965,
      "Ġsector": 2966,
      "isions": 2967,
      "Ã³": 2968,
      "ÃŃ": 2969,
      "Ġpolitischen": 2970,
      "hang": 2971,
      "Ġbasis": 2972,
      "Ġguarante": 2973,
      "schutz": 2974,
      "50": 2975,
      "ĠLin": 2976,
      "Ġbefindet": 2977,
      "Ġweitere": 2978,
      "ength": 2979,
      "Ġaim": 2980,
      "ĠWeg": 2981,
      "row": 2982,
      "ĠnÃ¤ch": 2983,
      "sen": 2984,
      "roll": 2985,
      "Ġbenef": 2986,
      "aster": 2987,
      "ĠNew": 2988,
      "esehen": 2989,
      "ĠkÃ¶nnte": 2990,
      "Ġpat": 2991,
      "ĠEnde": 2992,
      "Ġocc": 2993,
      "ĠIhrer": 2994,
      "Ġdort": 2995,
      "oney": 2996,
      "Ġerreichen": 2997,
      "itiative": 2998,
      "Ġpack": 2999,
      "Ġcomfort": 3000,
      "Ġbeaut": 3001,
      "Ġorigin": 3002,
      "neten": 3003,
      "Ġprofession": 3004,
      "irm": 3005,
      "thing": 3006,
      "Ġhatte": 3007,
      "Ġreally": 3008,
      "Ġmeiner": 3009,
      "imate": 3010,
      "Ġdi": 3011,
      "chan": 3012,
      "Ġdeal": 3013,
      "Ġmatter": 3014,
      "Ġwirklich": 3015,
      "ĠnatÃ¼rlich": 3016,
      "Ġcommit": 3017,
      "geord": 3018,
      "rift": 3019,
      "lock": 3020,
      "Ġcol": 3021,
      "Ġarbeit": 3022,
      "reaty": 3023,
      "Ġnie": 3024,
      "ĠFun": 3025,
      "ĠHaupt": 3026,
      "sk": 3027,
      "Ġtyp": 3028,
      "Ġbreak": 3029,
      "Ġthird": 3030,
      "Ġbesonders": 3031,
      "Ġdistr": 3032,
      "Ġinnov": 3033,
      "ritte": 3034,
      "Ġtot": 3035,
      "Ġbar": 3036,
      "Ġmonth": 3037,
      "Ġprior": 3038,
      "ably": 3039,
      "riften": 3040,
      "gende": 3041,
      "Ġespecially": 3042,
      "ĠZukunft": 3043,
      "ĠGeschÃ¤fts": 3044,
      "ino": 3045,
      "ived": 3046,
      "Ġstaff": 3047,
      "ĠAusschuss": 3048,
      "Ġihnen": 3049,
      "Ġmembers": 3050,
      "Ġclose": 3051,
      "Ġgovernment": 3052,
      "ances": 3053,
      "ĠStaaten": 3054,
      "Ġperiod": 3055,
      "til": 3056,
      "Ġdone": 3057,
      "Ġgent": 3058,
      "Ġverschiedenen": 3059,
      "Ġdoc": 3060,
      "ĠGegen": 3061,
      "ĠunterstÃ¼tzen": 3062,
      "ĠForsch": 3063,
      "30": 3064,
      "reg": 3065,
      "ĠAlle": 3066,
      "AR": 3067,
      "ĠMehr": 3068,
      "Ġproced": 3069,
      "cellent": 3070,
      "ifiz": 3071,
      "ization": 3072,
      "Ġmot": 3073,
      "Ġentfernt": 3074,
      "ety": 3075,
      "Ġfood": 3076,
      "ĠDeutsch": 3077,
      "app": 3078,
      "ĠPark": 3079,
      "finden": 3080,
      "Ã¼nft": 3081,
      "ograph": 3082,
      "Ġhoch": 3083,
      "ĠProdukt": 3084,
      "treten": 3085,
      "dings": 3086,
      "Ġinnerhalb": 3087,
      "zuf": 3088,
      "Ġtop": 3089,
      "ival": 3090,
      "ĠZwe": 3091,
      "ides": 3092,
      "ething": 3093,
      "werk": 3094,
      "ima": 3095,
      "ican": 3096,
      "Ġpersonal": 3097,
      "spl": 3098,
      "Ġcreate": 3099,
      "Ġnegot": 3100,
      "ĠSituation": 3101,
      "Ġfeat": 3102,
      "ĠSeiten": 3103,
      "ober": 3104,
      "ai": 3105,
      "Ġvielen": 3106,
      "Ġlocation": 3107,
      "Ġteil": 3108,
      "Ġ:": 3109,
      "Ġturn": 3110,
      "19": 3111,
      "Ġprivate": 3112,
      "kung": 3113,
      "neh": 3114,
      "ĠRolle": 3115,
      "Ġsite": 3116,
      "ĠJan": 3117,
      "Ġperform": 3118,
      "Ġinstit": 3119,
      "amt": 3120,
      "Ġrepresent": 3121,
      "Ġple": 3122,
      "asing": 3123,
      "Ġapproach": 3124,
      "Ġpress": 3125,
      "icient": 3126,
      "raum": 3127,
      "IT": 3128,
      "Ġsum": 3129,
      "ichtet": 3130,
      "Ġgener": 3131,
      "ĠProgramm": 3132,
      "Ġenter": 3133,
      "Ġbetr": 3134,
      "Ġprop": 3135,
      "Ġzwar": 3136,
      "\".": 3137,
      "inter": 3138,
      "Ġsoc": 3139,
      "scheiden": 3140,
      "indung": 3141,
      "duc": 3142,
      "ĠHotels": 3143,
      "Ġreform": 3144,
      "ĠWettbewer": 3145,
      "weisen": 3146,
      "\",": 3147,
      "Ġevent": 3148,
      "oment": 3149,
      "ences": 3150,
      "ension": 3151,
      "Ġnor": 3152,
      "Ġwelt": 3153,
      "Ġinternationalen": 3154,
      "Ġamong": 3155,
      "uc": 3156,
      "Ġmillion": 3157,
      "ĠTour": 3158,
      "ĠFest": 3159,
      "fast": 3160,
      "Ġjob": 3161,
      "Ġsingle": 3162,
      "ec": 3163,
      "Ġpoin": 3164,
      "Ġlo": 3165,
      "Ġstar": 3166,
      "Ġitself": 3167,
      "Ġdecision": 3168,
      "zip": 3169,
      "ordin": 3170,
      "Ġsomething": 3171,
      "Ã¼d": 3172,
      "iol": 3173,
      "ults": 3174,
      "ĠTerr": 3175,
      "Ġbestimm": 3176,
      "Ġlangu": 3177,
      "ĠGru": 3178,
      "Ġseveral": 3179,
      "ĠmÃ¶chten": 3180,
      "lands": 3181,
      "Ã¼hr": 3182,
      "olf": 3183,
      "ĠDire": 3184,
      "Ġstruct": 3185,
      "Ġdoub": 3186,
      "ktor": 3187,
      "ĠChr": 3188,
      "Ġgeneral": 3189,
      "ĠAfr": 3190,
      "ift": 3191,
      "eign": 3192,
      "Ġlist": 3193,
      "Ġinstall": 3194,
      "Ġresour": 3195,
      "Ġmaterial": 3196,
      "Ġfavour": 3197,
      "uellen": 3198,
      "ĠGermany": 3199,
      "eiten": 3200,
      "ittle": 3201,
      "ians": 3202,
      "onds": 3203,
      "Ġrapporteur": 3204,
      "ĠDisk": 3205,
      "isis": 3206,
      "ĠRichtlinie": 3207,
      "oor": 3208,
      "tember": 3209,
      "Ġtown": 3210,
      "ĠIhren": 3211,
      "ĠSoftware": 3212,
      "Ġaufge": 3213,
      "ĠOp": 3214,
      "ĠVerbrauch": 3215,
      "Ġdirekt": 3216,
      "uth": 3217,
      "Ã¤nde": 3218,
      "Ġmaking": 3219,
      "Ġcontinue": 3220,
      "atch": 3221,
      "Ġhinaus": 3222,
      "ĠWoch": 3223,
      "ĠdÃ¼r": 3224,
      "wh": 3225,
      "'t": 3226,
      "Ġprogramme": 3227,
      "rael": 3228,
      "mework": 3229,
      "Ġgl": 3230,
      "Ġresolution": 3231,
      "ĠAbst": 3232,
      "mos": 3233,
      "ĠStrateg": 3234,
      "wÃ¤r": 3235,
      "Ġenc": 3236,
      "Ġleast": 3237,
      "ĠSu": 3238,
      "ĠNutz": 3239,
      "eg": 3240,
      "ification": 3241,
      "Ġautomat": 3242,
      "Ġaccept": 3243,
      "Ġgentlemen": 3244,
      "Ġfollowing": 3245,
      "Ġintrodu": 3246,
      "Ġshe": 3247,
      "ĠKÃ¼": 3248,
      "yl": 3249,
      "cel": 3250,
      "sprache": 3251,
      "iations": 3252,
      "Ġexcellent": 3253,
      "ĠWind": 3254,
      "wÃ¤": 3255,
      "Ġaway": 3256,
      "Ġprogress": 3257,
      "Ġserious": 3258,
      "Ġpeace": 3259,
      "Ġrelations": 3260,
      "Ġlet": 3261,
      "Ġgoing": 3262,
      "Ġoften": 3263,
      "hens": 3264,
      "Ġkind": 3265,
      "IS": 3266,
      "Ġopin": 3267,
      "nehmer": 3268,
      "Ġhome": 3269,
      "Ġtext": 3270,
      "erien": 3271,
      "met": 3272,
      "Ġplan": 3273,
      "ativen": 3274,
      "miss": 3275,
      "Ġsup": 3276,
      "Ġmanagement": 3277,
      "Ġ2000": 3278,
      "Ġmar": 3279,
      "ifen": 3280,
      "Ġname": 3281,
      "ĠRÃ¼ck": 3282,
      "auer": 3283,
      "Ġerste": 3284,
      "atives": 3285,
      "let": 3286,
      "ĠCan": 3287,
      "Ġunderstand": 3288,
      "Ġfamily": 3289,
      "Ġkonn": 3290,
      "Ġdirective": 3291,
      "Ġtro": 3292,
      "Ġparticip": 3293,
      "Ġoffen": 3294,
      "Ġrules": 3295,
      "bei": 3296,
      "ĠUhr": 3297,
      "Ġans": 3298,
      "ĠeuropÃ¤ische": 3299,
      "aps": 3300,
      "gricult": 3301,
      "ĠBerlin": 3302,
      "rÃ¤ge": 3303,
      "ĠTransp": 3304,
      "ĠEmp": 3305,
      "iere": 3306,
      "Ġcrisis": 3307,
      "fehl": 3308,
      "strument": 3309,
      "iken": 3310,
      "Ðµ": 3311,
      "Ġcontact": 3312,
      "oto": 3313,
      "Ġanal": 3314,
      "Ġregul": 3315,
      "CH": 3316,
      "Ġsett": 3317,
      "icle": 3318,
      "ierungen": 3319,
      "produ": 3320,
      "though": 3321,
      "ĠKre": 3322,
      "ksam": 3323,
      "ype": 3324,
      "ĠWorld": 3325,
      "ĠFrank": 3326,
      "ĠMeinung": 3327,
      "fect": 3328,
      "ĠMy": 3329,
      "Ġapart": 3330,
      "icial": 3331,
      "Ġmach": 3332,
      "go": 3333,
      "ĠNatur": 3334,
      "Ġfeel": 3335,
      "ĠGesundheit": 3336,
      "weg": 3337,
      "Ġsoftware": 3338,
      "Ġtowards": 3339,
      "Ġmoney": 3340,
      "Ġforward": 3341,
      "Ġonce": 3342,
      "Ġexpress": 3343,
      "Ġstark": 3344,
      "leistungen": 3345,
      "Ġinc": 3346,
      "Ġ198": 3347,
      "Ġprice": 3348,
      "ĠRep": 3349,
      "Ġeinzel": 3350,
      "Ġrange": 3351,
      "Ġklar": 3352,
      "Ġline": 3353,
      "ĠBerichterstatter": 3354,
      "thers": 3355,
      "Ġwelcome": 3356,
      "ĠKomm": 3357,
      "achst": 3358,
      "Ġextrem": 3359,
      "ully": 3360,
      "ony": 3361,
      "Ġonline": 3362,
      "Ġfast": 3363,
      "Ġetc": 3364,
      "ĠUnivers": 3365,
      "ĠGra": 3366,
      "etzung": 3367,
      "pekt": 3368,
      "Ġthings": 3369,
      "Ġabsol": 3370,
      "stÃ¼ck": 3371,
      "Ġlittle": 3372,
      "ĠMet": 3373,
      "prÃ¼": 3374,
      "ĠInvest": 3375,
      "Ġrecog": 3376,
      "Ġdest": 3377,
      "Ġbal": 3378,
      "zogen": 3379,
      "airs": 3380,
      "teilung": 3381,
      "voll": 3382,
      "ĠZusammenhang": 3383,
      "Ġinstitutions": 3384,
      "ĠGleich": 3385,
      "ologie": 3386,
      "Ð°": 3387,
      "ĠhÃ¤t": 3388,
      "Ġant": 3389,
      "ference": 3390,
      "Ġcommunic": 3391,
      "bet": 3392,
      "Ġmention": 3393,
      "Ġident": 3394,
      "ĠNov": 3395,
      "11": 3396,
      "uÃŁen": 3397,
      "Ġpost": 3398,
      "Ġzus": 3399,
      "ĠAbgeord": 3400,
      "ĠFisch": 3401,
      "itÃ¤ts": 3402,
      "Ġuntil": 3403,
      "ifft": 3404,
      "unds": 3405,
      "ĠPe": 3406,
      "haus": 3407,
      "weis": 3408,
      "Ġsitu": 3409,
      "istic": 3410,
      "Ġbeiden": 3411,
      "wand": 3412,
      "Ġmilit": 3413,
      "Ġunserem": 3414,
      "esten": 3415,
      "ĠGÃ¤ste": 3416,
      "lik": 3417,
      "ĠMadam": 3418,
      "Ġkommt": 3419,
      "Ġstre": 3420,
      "anges": 3421,
      "enzen": 3422,
      "ean": 3423,
      "outh": 3424,
      "Ġdays": 3425,
      "Ġwalk": 3426,
      "ĠSpan": 3427,
      "ĠPersonen": 3428,
      "asst": 3429,
      "ĠPartner": 3430,
      "Ġoptim": 3431,
      "ĠNational": 3432,
      "Ġcustomers": 3433,
      "gÃ¤n": 3434,
      "Ġfinanz": 3435,
      "DE": 3436,
      "ured": 3437,
      "ĠDo": 3438,
      "atten": 3439,
      "Ġstrong": 3440,
      "ĠArtikel": 3441,
      "Ġaid": 3442,
      "ĠTreaty": 3443,
      "Ġ2006": 3444,
      "ume": 3445,
      "ĠHilfe": 3446,
      "vent": 3447,
      "ĠCar": 3448,
      "Ġess": 3449,
      "ĠBank": 3450,
      "zimmer": 3451,
      "Ġentsprechen": 3452,
      "ison": 3453,
      "lÃ¤ge": 3454,
      "ĠEntschlieÃŁ": 3455,
      "eu": 3456,
      "mat": 3457,
      "Ġincrease": 3458,
      "lean": 3459,
      "OR": 3460,
      "tract": 3461,
      "idence": 3462,
      "ĠMo": 3463,
      "ĠApp": 3464,
      "Ġagree": 3465,
      "ieten": 3466,
      "iesen": 3467,
      "Ġbestehen": 3468,
      "Ġopportunity": 3469,
      "ommend": 3470,
      "ĠSchluss": 3471,
      "leicht": 3472,
      "AS": 3473,
      "Ã¤chst": 3474,
      "ww": 3475,
      "ĠJul": 3476,
      "fassung": 3477,
      "yr": 3478,
      "ĠVerantwort": 3479,
      "Ġweltweit": 3480,
      "na": 3481,
      "ĠFil": 3482,
      "Ġkeep": 3483,
      "Ġrather": 3484,
      "ĠUms": 3485,
      "Ġfunction": 3486,
      "idency": 3487,
      "Ġgrowth": 3488,
      "ennen": 3489,
      "rech": 3490,
      "Ġactivities": 3491,
      "Ġmind": 3492,
      "half": 3493,
      "Ġhard": 3494,
      "ocus": 3495,
      "ĠDieses": 3496,
      "liches": 3497,
      "ĠSep": 3498,
      "Ġquite": 3499,
      "crip": 3500,
      "stra": 3501,
      "edom": 3502,
      "Ġstellt": 3503,
      "Ã¤uf": 3504,
      "ĠMembers": 3505,
      "Ġve": 3506,
      "Ġcheck": 3507,
      "Ġbringen": 3508,
      "ĠLÃ¶sung": 3509,
      "ales": 3510,
      "ĠDemokrat": 3511,
      "mÃ¤ÃŁ": 3512,
      "Ġbzw": 3513,
      "Ġil": 3514,
      "weil": 3515,
      "ĠOrganis": 3516,
      "Ġja": 3517,
      "side": 3518,
      "baren": 3519,
      "han": 3520,
      "Ġseem": 3521,
      "ha": 3522,
      "lieÃŁen": 3523,
      "ĠWeit": 3524,
      "ĠWar": 3525,
      "Ġpositive": 3526,
      "Pro": 3527,
      "vorsch": 3528,
      "Ġprovided": 3529,
      "ĠPrÃ¤sidentin": 3530,
      "ĠLeben": 3531,
      "annten": 3532,
      "Ġtry": 3533,
      "ĠstÃ¤r": 3534,
      "ĠbegrÃ¼": 3535,
      "Ġelect": 3536,
      "Ġresources": 3537,
      "ĠKultur": 3538,
      "Ġbig": 3539,
      "Ġtas": 3540,
      "Ġsw": 3541,
      "ply": 3542,
      "Ġren": 3543,
      "aden": 3544,
      "ĠBas": 3545,
      "ĠfÃ¼hr": 3546,
      "Ġpartners": 3547,
      "Ġsug": 3548,
      "Ã¤ren": 3549,
      "ĠSc": 3550,
      "ller": 3551,
      "Ġweniger": 3552,
      "Ġdev": 3553,
      "Ġdaran": 3554,
      "Ġmean": 3555,
      "Ġtreat": 3556,
      "Ġindem": 3557,
      "Ġmight": 3558,
      "rolle": 3559,
      "ĠMinister": 3560,
      "Ġbehalf": 3561,
      "forderungen": 3562,
      "eits": 3563,
      "erecht": 3564,
      "Ġgilt": 3565,
      "ined": 3566,
      "Ġland": 3567,
      "letz": 3568,
      "Ġfully": 3569,
      "Ġport": 3570,
      "Ġclass": 3571,
      "ĠChar": 3572,
      "Ġetwa": 3573,
      "apan": 3574,
      "ideo": 3575,
      "reiche": 3576,
      "Ġqual": 3577,
      "ĠgewÃ¤hr": 3578,
      "Ã¼cksicht": 3579,
      "ĠCent": 3580,
      "ĠDeshalb": 3581,
      "the": 3582,
      "Ã¤mlich": 3583,
      "hnt": 3584,
      "mosph": 3585,
      "Ġjeden": 3586,
      "12": 3587,
      "Ġgesagt": 3588,
      "ona": 3589,
      "Ġfour": 3590,
      "Ġspiel": 3591,
      "frage": 3592,
      "Ġinclude": 3593,
      "abhÃ¤ng": 3594,
      "zeitig": 3595,
      "ĠnÃ¤mlich": 3596,
      "alitÃ¤t": 3597,
      "Ġlab": 3598,
      "wohl": 3599,
      "Ġsignific": 3600,
      "Â®": 3601,
      "iful": 3602,
      "Ġbitte": 3603,
      "Ġgute": 3604,
      "Ġyet": 3605,
      "legenheit": 3606,
      "Ġumf": 3607,
      "ager": 3608,
      "ĠState": 3609,
      "aler": 3610,
      "bon": 3611,
      "ĠAss": 3612,
      "Ã¤hlen": 3613,
      "Ġvalue": 3614,
      "plan": 3615,
      "ĠSozial": 3616,
      "onger": 3617,
      "stadt": 3618,
      "Ã¼hren": 3619,
      "Ġpark": 3620,
      "ĠpersÃ¶n": 3621,
      "itions": 3622,
      "einander": 3623,
      "ĠAfter": 3624,
      "Ġhaving": 3625,
      "fert": 3626,
      "ĠKosten": 3627,
      "ĠRates": 3628,
      "Ġpur": 3629,
      "Ġladies": 3630,
      "komm": 3631,
      "Ġtechnology": 3632,
      "ĠSeptember": 3633,
      "ception": 3634,
      "ĠErfahr": 3635,
      "Ġentscheiden": 3636,
      "prochen": 3637,
      "Ġsogar": 3638,
      "Ġmag": 3639,
      "ĠPer": 3640,
      "ĠOrt": 3641,
      "ij": 3642,
      "ĠEuropas": 3643,
      "ĠProdukte": 3644,
      "amental": 3645,
      "setzung": 3646,
      "Ġgenau": 3647,
      "Ġfield": 3648,
      "hunder": 3649,
      "ratic": 3650,
      "ĠPreis": 3651,
      "telle": 3652,
      "Ġadmin": 3653,
      "Ã¤chlich": 3654,
      "Ġproposals": 3655,
      "Ġbor": 3656,
      "ĠMillionen": 3657,
      "ops": 3658,
      "ĠNor": 3659,
      "Ġamendments": 3660,
      "recht": 3661,
      "wendet": 3662,
      "uh": 3663,
      "vÃ¶lk": 3664,
      "OM": 3665,
      "Ġalong": 3666,
      "ĠGeld": 3667,
      "Ġgerade": 3668,
      "Ġeduc": 3669,
      "Ġkurz": 3670,
      "self": 3671,
      "Ġu": 3672,
      "tragen": 3673,
      "Ġremain": 3674,
      "Ġerfolg": 3675,
      "iten": 3676,
      "illa": 3677,
      "Ġsolution": 3678,
      "Ġframework": 3679,
      "Ġtimes": 3680,
      "Ġtem": 3681,
      "Ġleft": 3682,
      "Ġnehmen": 3683,
      "roffen": 3684,
      "Ġ21": 3685,
      "ĠProjekt": 3686,
      "ĠAustr": 3687,
      "Ġbekannt": 3688,
      "Ġlog": 3689,
      "ingen": 3690,
      "Ġ)": 3691,
      "Ġkosten": 3692,
      "armon": 3693,
      "ĠText": 3694,
      "lei": 3695,
      "fully": 3696,
      "Ġsafety": 3697,
      "Ġminutes": 3698,
      "Ġarch": 3699,
      "ĠPriv": 3700,
      "ĠGar": 3701,
      "Ġrecommend": 3702,
      "Ġerwar": 3703,
      "ĠAnge": 3704,
      "ĠGrÃ¼n": 3705,
      "Ġcosts": 3706,
      "Ġabove": 3707,
      "verb": 3708,
      "Ġlight": 3709,
      "racy": 3710,
      "Ġspeak": 3711,
      "Ġeasy": 3712,
      "Ġeconomy": 3713,
      "ĠTod": 3714,
      "ĠPunkt": 3715,
      "stant": 3716,
      "Ġihn": 3717,
      "ativ": 3718,
      "Ġothers": 3719,
      "Ġadopted": 3720,
      "ĠJahres": 3721,
      "Ġtaking": 3722,
      "Ġessential": 3723,
      "alten": 3724,
      "oph": 3725,
      "Ġpolitische": 3726,
      "Ġunterschied": 3727,
      "ĠIsrael": 3728,
      "Ġebenfalls": 3729,
      "ledge": 3730,
      "lement": 3731,
      "Ġweek": 3732,
      "ĠTats": 3733,
      "ĠZugang": 3734,
      "most": 3735,
      "ĠTÃ¼r": 3736,
      "Ġstrength": 3737,
      "Ġmeisten": 3738,
      "anst": 3739,
      "ethod": 3740,
      "Ġihm": 3741,
      "Ġrecht": 3742,
      "Ġflo": 3743,
      "handlungen": 3744,
      "Ġpa": 3745,
      "ĠWeb": 3746,
      "Ġcreat": 3747,
      "Ġgemacht": 3748,
      "ĠFraktion": 3749,
      "ĠDank": 3750,
      "wahl": 3751,
      "inge": 3752,
      "Ġmakes": 3753,
      "Ġseinem": 3754,
      "ana": 3755,
      "ĠÃ¼": 3756,
      "unst": 3757,
      "za": 3758,
      "Ġviol": 3759,
      "Ġcontent": 3760,
      "ĠWirtschaft": 3761,
      "Ġled": 3762,
      "Ġcharac": 3763,
      "Ġentire": 3764,
      "Ġ40": 3765,
      "ĠBezug": 3766,
      "iberal": 3767,
      "Ġdessen": 3768,
      "Ġopinion": 3769,
      "Ġtool": 3770,
      "ĠSta": 3771,
      "ĠDieser": 3772,
      "Ġbesser": 3773,
      "iben": 3774,
      "Ġverbunden": 3775,
      "iers": 3776,
      "ports": 3777,
      "Ġbank": 3778,
      "Ġcalled": 3779,
      "Ġgehen": 3780,
      "Ġverst": 3781,
      "Ġdarf": 3782,
      "Ġflex": 3783,
      "ĠUnsere": 3784,
      "Ġbath": 3785,
      "ysteme": 3786,
      "tag": 3787,
      "Ġreturn": 3788,
      "ĠJanu": 3789,
      "bare": 3790,
      "Ġagricult": 3791,
      "Ġanges": 3792,
      "achten": 3793,
      "Ġconstru": 3794,
      "Ġnever": 3795,
      "Ġwebsite": 3796,
      "sh": 3797,
      "reen": 3798,
      "Ġlegislation": 3799,
      "ĠunterstÃ¼tzt": 3800,
      "ĠKap": 3801,
      "nete": 3802,
      "ĠOne": 3803,
      "Ġfocus": 3804,
      "Ġwesent": 3805,
      "ane": 3806,
      "ĠInstitution": 3807,
      "aurants": 3808,
      "ĠDeutschland": 3809,
      "ĠZust": 3810,
      "Ġapplication": 3811,
      "reicht": 3812,
      "ric": 3813,
      "ĠKomp": 3814,
      "Ġ2005": 3815,
      "Ġterm": 3816,
      "Ġak": 3817,
      "word": 3818,
      "ruktur": 3819,
      "igital": 3820,
      "ĠRechte": 3821,
      "iled": 3822,
      "gebung": 3823,
      "Ġresults": 3824,
      "ested": 3825,
      "Ð¸": 3826,
      "igr": 3827,
      "Ġwahr": 3828,
      "ĠPat": 3829,
      "Ġprovides": 3830,
      "Ġbuilding": 3831,
      "Ġsure": 3832,
      "Ã¼nf": 3833,
      "Ġpoints": 3834,
      "aged": 3835,
      "sweise": 3836,
      "atis": 3837,
      "Ġdarin": 3838,
      "ser": 3839,
      "ostel": 3840,
      "Ġdeliver": 3841,
      "Ġnah": 3842,
      "Ġprojects": 3843,
      "Ġfreedom": 3844,
      "aussch": 3845,
      "ĠVerkehr": 3846,
      "vernment": 3847,
      "Ġideal": 3848,
      "Ġdue": 3849,
      "Ġattention": 3850,
      "AL": 3851,
      "ĠSa": 3852,
      "Ġfair": 3853,
      "Ġbeginn": 3854,
      "erst": 3855,
      "Ġprogramm": 3856,
      "Ġpolicies": 3857,
      "arian": 3858,
      "ĠEntwicklungs": 3859,
      "benso": 3860,
      "ĠAntw": 3861,
      "Ġconcerned": 3862,
      "ĠBuch": 3863,
      "ĠGl": 3864,
      "ĠSel": 3865,
      "amb": 3866,
      "Ġheart": 3867,
      "Ġpot": 3868,
      "Ġstandard": 3869,
      "uz": 3870,
      "ĠIde": 3871,
      "Ã¼l": 3872,
      "ĠCo": 3873,
      "Ġcover": 3874,
      "ĠDen": 3875,
      "Ġresponsibility": 3876,
      "Ġglaube": 3877,
      "oting": 3878,
      "ĠÃ¶ffentlichen": 3879,
      "ĠFrei": 3880,
      "Ġbeautiful": 3881,
      "Ġpast": 3882,
      "Ġrisk": 3883,
      "ators": 3884,
      "Ġsimply": 3885,
      "ĠSub": 3886,
      "irc": 3887,
      "ufact": 3888,
      "ĠdÃ¼rfen": 3889,
      "iner": 3890,
      "Ġeinigen": 3891,
      "Ġderzeit": 3892,
      "Ġmass": 3893,
      "ĠWasser": 3894,
      "Ġrela": 3895,
      "Ġappropr": 3896,
      "âĤ": 3897,
      "reiben": 3898,
      "Ġnichts": 3899,
      "âĤ¬": 3900,
      "ĠQualitÃ¤t": 3901,
      "mitted": 3902,
      "now": 3903,
      "Ġperfect": 3904,
      "ĠMeer": 3905,
      "Ġquestions": 3906,
      "ished": 3907,
      "ĠJust": 3908,
      "ĠGemeinschaft": 3909,
      "Ġschaffen": 3910,
      "hing": 3911,
      "ĠWebsite": 3912,
      "Ġteam": 3913,
      "Ġyoung": 3914,
      "Ġgroups": 3915,
      "ĠSol": 3916,
      "Ġimportance": 3917,
      "ĠNicht": 3918,
      "ĠMÃ¤r": 3919,
      "ĠVerw": 3920,
      "berg": 3921,
      "Ġdom": 3922,
      "ĠHÃ¶": 3923,
      "Ã¨": 3924,
      "ĠFlug": 3925,
      "ients": 3926,
      "The": 3927,
      "EL": 3928,
      "Ġbit": 3929,
      "Ġmoder": 3930,
      "Ġabge": 3931,
      "wÃ¼r": 3932,
      "Ġsollen": 3933,
      "Ġeffective": 3934,
      "bour": 3935,
      "ĠNÃ¤": 3936,
      "Ġsociety": 3937,
      "schlieÃŁlich": 3938,
      "ĠRei": 3939,
      "ustain": 3940,
      "ding": 3941,
      "ampf": 3942,
      "afen": 3943,
      "ĠBeschÃ¤ft": 3944,
      "ceed": 3945,
      "ĠFrÃ¼h": 3946,
      "ringen": 3947,
      "Ġcontext": 3948,
      "zentr": 3949,
      "Ġihrem": 3950,
      "Ġhead": 3951,
      "ĠJahrhunder": 3952,
      "ĠPra": 3953,
      "Ġbrauchen": 3954,
      "ĠAngeb": 3955,
      "ada": 3956,
      "ĠFir": 3957,
      "Ġknown": 3958,
      "ĠProf": 3959,
      "Ġkeinen": 3960,
      "Ġnationalen": 3961,
      "gesehen": 3962,
      "ĠTV": 3963,
      "Ġgreater": 3964,
      "ĠRestaurant": 3965,
      "Ġholid": 3966,
      "Ġsea": 3967,
      "ĠAussprache": 3968,
      "arbeiten": 3969,
      "zustellen": 3970,
      "rimin": 3971,
      "ĠTre": 3972,
      "wÃ¤rt": 3973,
      "Ġenvironmental": 3974,
      "ĠVerbraucher": 3975,
      "Ġcontinu": 3976,
      "Ġ2004": 3977,
      "Ġhandelt": 3978,
      "Ġstrategy": 3979,
      "spolitik": 3980,
      "Ġmethod": 3981,
      "unkte": 3982,
      "Ġindustr": 3983,
      "iqu": 3984,
      "ĠKolleg": 3985,
      "verkehr": 3986,
      "ĠGroÃŁ": 3987,
      "rieg": 3988,
      "ĠCont": 3989,
      "Ã¤us": 3990,
      "istan": 3991,
      "ĠzusÃ¤tz": 3992,
      "utzt": 3993,
      "Ġtotal": 3994,
      "Ġversion": 3995,
      "Ġverbess": 3996,
      "EC": 3997,
      "onnen": 3998,
      "Ġnatural": 3999,
      "Ġstandards": 4000,
      "uelle": 4001,
      "emp": 4002,
      "pflicht": 4003,
      "Ġtable": 4004,
      "Ġroad": 4005,
      "leben": 4006,
      "itive": 4007,
      "Ġprinciple": 4008,
      "ÑĤ": 4009,
      "ĠChrist": 4010,
      "Ġweiterhin": 4011,
      "ĠII": 4012,
      "ĠSal": 4013,
      "Ġarr": 4014,
      "Ã¤ter": 4015,
      "unÃ¤chst": 4016,
      "ziehen": 4017,
      "Ġattra": 4018,
      "Ġverste": 4019,
      "Ġrad": 4020,
      "cen": 4021,
      "unehmen": 4022,
      "Ġtalk": 4023,
      "Ġmiss": 4024,
      "fs": 4025,
      "Ġwords": 4026,
      "Ġbetrifft": 4027,
      "eutet": 4028,
      "Ġsend": 4029,
      "ĠEbene": 4030,
      "ĠDr": 4031,
      "hib": 4032,
      "astru": 4033,
      "ĠSitz": 4034,
      "ĠFortsch": 4035,
      "Ġincreasing": 4036,
      "ette": 4037,
      "uell": 4038,
      "haltung": 4039,
      "Ġchallen": 4040,
      "Ġrequired": 4041,
      "Ġinstitution": 4042,
      "OS": 4043,
      "ning": 4044,
      "Ġlea": 4045,
      "ĠFar": 4046,
      "frastru": 4047,
      "acy": 4048,
      "Ġversch": 4049,
      "Ġcentral": 4050,
      "ĠDesign": 4051,
      "Ġviews": 4052,
      "unities": 4053,
      "Ġheraus": 4054,
      "isiert": 4055,
      "Ġhouse": 4056,
      "Ġsignificant": 4057,
      "bereit": 4058,
      "Ġmanufact": 4059,
      "Ġreserv": 4060,
      "zeichnet": 4061,
      "rach": 4062,
      "Ġwenig": 4063,
      "ided": 4064,
      "ĠerklÃ¤r": 4065,
      "ĠBem": 4066,
      "ulture": 4067,
      "Ġmoment": 4068,
      "Ġ23": 4069,
      "ĠZus": 4070,
      "staat": 4071,
      "wach": 4072,
      "Ġbedeutet": 4073,
      "ĠLeist": 4074,
      "onen": 4075,
      "useum": 4076,
      "Ġtraining": 4077,
      "Ġsei": 4078,
      "Ġdeutlich": 4079,
      "ĠCas": 4080,
      "Ġclearly": 4081,
      "ĠbenÃ¶t": 4082,
      "Ġmacht": 4083,
      "stoff": 4084,
      "Ġauthorities": 4085,
      "Ġdeshalb": 4086,
      "ex": 4087,
      "Ġmusic": 4088,
      "Ġmeeting": 4089,
      "Ġsolche": 4090,
      "Ġquick": 4091,
      "ĠAbstimmung": 4092,
      "Ġunver": 4093,
      "Ġinfl": 4094,
      "ban": 4095,
      "ims": 4096,
      "Ġbesten": 4097,
      "ĠApr": 4098,
      "Ġcla": 4099,
      "term": 4100,
      "Ġdon": 4101,
      "Ã¤nger": 4102,
      "An": 4103,
      "lÃ¤ss": 4104,
      "Ġuser": 4105,
      "spruch": 4106,
      "''": 4107,
      "Ġrelax": 4108,
      "Ġdemand": 4109,
      "Ġrecent": 4110,
      "icro": 4111,
      "Ġbreakfast": 4112,
      "Ġparl": 4113,
      "Ġkomple": 4114,
      "cal": 4115,
      "bung": 4116,
      "Ġpub": 4117,
      "Ġaufgrund": 4118,
      "anze": 4119,
      "atal": 4120,
      "vo": 4121,
      "Ġnetwork": 4122,
      "Ġinteress": 4123,
      "genda": 4124,
      "ĠWohn": 4125,
      "ĠMay": 4126,
      "Ġcapital": 4127,
      "schluss": 4128,
      "Ġextra": 4129,
      "ĠGesetz": 4130,
      "ĠBezieh": 4131,
      "ritten": 4132,
      "Ġlearn": 4133,
      "iting": 4134,
      "Ġlar": 4135,
      "Ġachieve": 4136,
      "ĠwÃ¼rden": 4137,
      "zÃ¼glich": 4138,
      "mals": 4139,
      "Ġfa": 4140,
      "fall": 4141,
      "Ġsour": 4142,
      "Ġaspect": 4143,
      "Ġnight": 4144,
      "Ġwichtige": 4145,
      "ĠWill": 4146,
      "aging": 4147,
      "Ã¤sent": 4148,
      "Ġshare": 4149,
      "ĠGesellschaft": 4150,
      "ĠKlima": 4151,
      "Ġfish": 4152,
      "ĠNovember": 4153,
      "ari": 4154,
      "ĠDok": 4155,
      "Ġtechnical": 4156,
      "erous": 4157,
      "ĠBesuch": 4158,
      "ĠSchul": 4159,
      "ĠAg": 4160,
      "Ġoft": 4161,
      "cent": 4162,
      "Ġmat": 4163,
      "yle": 4164,
      "Ġdistrib": 4165,
      "Ġclean": 4166,
      "ĠBro": 4167,
      "Ġaccording": 4168,
      "Ġvia": 4169,
      "Ġpages": 4170,
      "ĠKunst": 4171,
      "gesetzt": 4172,
      "ri": 4173,
      "Ġnature": 4174,
      "Ġappear": 4175,
      "Ġinternal": 4176,
      "ĠJapan": 4177,
      "hÃ¶rden": 4178,
      "Ġimm": 4179,
      "ĠMitarbeit": 4180,
      "Ġbeispiel": 4181,
      "ĠMenschenrechte": 4182,
      "Ġdirectly": 4183,
      "Ġlonger": 4184,
      "ones": 4185,
      "Ġmonths": 4186,
      "ology": 4187,
      "60": 4188,
      "gelegt": 4189,
      "jen": 4190,
      "Ġfindet": 4191,
      "Ġfacilities": 4192,
      "Ġside": 4193,
      "platz": 4194,
      "ĠUmsetzung": 4195,
      "Ġthough": 4196,
      "ĠWindows": 4197,
      "Ġprec": 4198,
      "Ġverein": 4199,
      "ĠVon": 4200,
      "ĠDemokratie": 4201,
      "Ġemployment": 4202,
      "ĠJu": 4203,
      "ĠnÃ¤chsten": 4204,
      "change": 4205,
      "Ġproposed": 4206,
      "Ġenough": 4207,
      "Ġobl": 4208,
      "wohn": 4209,
      "Ġsolutions": 4210,
      "ĠBevÃ¶lk": 4211,
      "Ġresponsible": 4212,
      "Ã¶rderung": 4213,
      "ender": 4214,
      "ption": 4215,
      "elves": 4216,
      "unch": 4217,
      "Ġfundamental": 4218,
      "Ġern": 4219,
      "ĠBetrie": 4220,
      "Ð½": 4221,
      "AP": 4222,
      "ĠAnsicht": 4223,
      "ĠgewÃ¤hrle": 4224,
      "ĠFirst": 4225,
      "Ġcultural": 4226,
      "Ġhistory": 4227,
      "Ġerne": 4228,
      "ĠRichtung": 4229,
      "Ġvorgesch": 4230,
      "AD": 4231,
      "Ġinterests": 4232,
      "ĠBrit": 4233,
      "gency": 4234,
      "Ġsubs": 4235,
      "Ġguests": 4236,
      "ker": 4237,
      "Ġtest": 4238,
      "Ġrequirements": 4239,
      "Ġnutzen": 4240,
      "Ġvol": 4241,
      "ĠHerren": 4242,
      "Ġcharacter": 4243,
      "kÃ¤mp": 4244,
      "ĠIndustrie": 4245,
      "Ġcurrently": 4246,
      "Ġlange": 4247,
      "Ġbetre": 4248,
      "orted": 4249,
      "ĠAuss": 4250,
      "Ġprevent": 4251,
      "Ġmaintain": 4252,
      "Ġvier": 4253,
      "ĠIra": 4254,
      "ĠNÃ¤he": 4255,
      "ĠApril": 4256,
      "ffe": 4257,
      "Ġcivil": 4258,
      "ĠSuch": 4259,
      "ĠHa": 4260,
      "frist": 4261,
      "lieÃŁlich": 4262,
      "Ġregions": 4263,
      "Ġevents": 4264,
      "umente": 4265,
      "ither": 4266,
      "ĠStat": 4267,
      "Ġassist": 4268,
      "ief": 4269,
      "ĠKar": 4270,
      "Ġterror": 4271,
      "Ġ22": 4272,
      "ables": 4273,
      "ĠBÃ¼": 4274,
      "Ġmount": 4275,
      "istischen": 4276,
      "rank": 4277,
      "Ġallerdings": 4278,
      "tes": 4279,
      "Ġthems": 4280,
      "IC": 4281,
      "ube": 4282,
      "Ġinvolved": 4283,
      "Ġthemselves": 4284,
      "gru": 4285,
      "Ġsustain": 4286,
      "drÃ¼ck": 4287,
      "verstÃ¤nd": 4288,
      "Ġsy": 4289,
      "Ġparties": 4290,
      "Ġweb": 4291,
      "Ġ000": 4292,
      "ellen": 4293,
      "ĠFehl": 4294,
      "ĠVerantwortung": 4295,
      "Ġapply": 4296,
      "ĠIr": 4297,
      "hem": 4298,
      "Ġsele": 4299,
      "Ġilleg": 4300,
      "Ġbil": 4301,
      "Ġanim": 4302,
      "stehen": 4303,
      "US": 4304,
      "Ġrecogn": 4305,
      "ĠInsel": 4306,
      "ĠWachst": 4307,
      "Ġzie": 4308,
      "Ġneeded": 4309,
      "wirkungen": 4310,
      "heim": 4311,
      "ĠSelbst": 4312,
      "ĠStruktur": 4313,
      "ĠBedingungen": 4314,
      "lauf": 4315,
      "irt": 4316,
      "Ġlive": 4317,
      "ĠAnwendung": 4318,
      "Ġcompetition": 4319,
      "esented": 4320,
      "llig": 4321,
      "Ġhappen": 4322,
      "teile": 4323,
      "ĠBenutz": 4324,
      "Ġforeign": 4325,
      "Ġhoffe": 4326,
      "aper": 4327,
      "Ġextremely": 4328,
      "ĠFern": 4329,
      "richtung": 4330,
      "Ġvoted": 4331,
      "Ġgegeben": 4332,
      "Ġforce": 4333,
      "ĠEntscheidung": 4334,
      "Ġgemeinsamen": 4335,
      "Ġimplementation": 4336,
      "cies": 4337,
      "ĠWert": 4338,
      "folgt": 4339,
      "Ġ197": 4340,
      "Ġrequest": 4341,
      "ĠPlease": 4342,
      "ta": 4343,
      "ĠFrom": 4344,
      "Ġnotwendig": 4345,
      "Ġstation": 4346,
      "Ġdemocracy": 4347,
      "Ġcentury": 4348,
      "mbH": 4349,
      "cke": 4350,
      "val": 4351,
      "bank": 4352,
      "Ġefforts": 4353,
      "ĠJun": 4354,
      "ĠGebiet": 4355,
      "ĠRaum": 4356,
      "Ġbeispielsweise": 4357,
      "Ġguarantee": 4358,
      "Ġupon": 4359,
      "ĠZiele": 4360,
      "Ġfight": 4361,
      "Ġcamp": 4362,
      "ĠAG": 4363,
      "ĠBau": 4364,
      "Ġlanguage": 4365,
      "Ġ2003": 4366,
      "Ġjeweil": 4367,
      "Ġitem": 4368,
      "ele": 4369,
      "Ã¼rz": 4370,
      "ĠTages": 4371,
      "ired": 4372,
      "Ġkont": 4373,
      "ĠKons": 4374,
      "Ġago": 4375,
      "urf": 4376,
      "dam": 4377,
      "ĠDruck": 4378,
      "ĠGrundlage": 4379,
      "ommod": 4380,
      "Ġdank": 4381,
      "ynam": 4382,
      "ĠgehÃ¶rt": 4383,
      "uk": 4384,
      "ĠSoc": 4385,
      "peten": 4386,
      "ĠVorschlÃ¤ge": 4387,
      "Ġbedeut": 4388,
      "has": 4389,
      "ĠInteresse": 4390,
      "Ã¼ssel": 4391,
      "Ġwohl": 4392,
      "ĠTrans": 4393,
      "ĠPf": 4394,
      "linien": 4395,
      "Ġchanges": 4396,
      "obile": 4397,
      "Ġvielleicht": 4398,
      "Ġkleinen": 4399,
      "Ġcaus": 4400,
      "bel": 4401,
      "ienen": 4402,
      "ĠNord": 4403,
      "ĠErfolg": 4404,
      "ublik": 4405,
      "Ġplease": 4406,
      "ĠParis": 4407,
      "Ġsozialen": 4408,
      "Ġprep": 4409,
      "inzip": 4410,
      "ĠDam": 4411,
      "ĠOff": 4412,
      "ĠGmbH": 4413,
      "ĠEinz": 4414,
      "Ġverwendet": 4415,
      "Ġdisk": 4416,
      "rench": 4417,
      "lied": 4418,
      "Ġlow": 4419,
      "Ġcharge": 4420,
      "Ġexpect": 4421,
      "Ġenthalten": 4422,
      "Ġwind": 4423,
      "Ġerziel": 4424,
      "Ġcirc": 4425,
      "ĠMusik": 4426,
      "Ġdemokrat": 4427,
      "Ġcontain": 4428,
      "Ġsepar": 4429,
      "Ġdeveloped": 4430,
      "ĠIhrem": 4431,
      "ĠParte": 4432,
      "atory": 4433,
      "ragen": 4434,
      "ĠermÃ¶glich": 4435,
      "key": 4436,
      "igur": 4437,
      "ĠWieder": 4438,
      "Ġsprechen": 4439,
      "grif": 4440,
      "ĠBil": 4441,
      "arf": 4442,
      "Ġbevor": 4443,
      "Ġcorre": 4444,
      "vert": 4445,
      "Ġfarm": 4446,
      "ĠStre": 4447,
      "ĠAuÃŁen": 4448,
      "Ġzust": 4449,
      "ĠTele": 4450,
      "igungs": 4451,
      "Ġregulation": 4452,
      "Ġneu": 4453,
      "ĠEur": 4454,
      "ĠKrit": 4455,
      "rup": 4456,
      "ĠVerfahren": 4457,
      "amous": 4458,
      "Ġprotect": 4459,
      "ano": 4460,
      "ĠTro": 4461,
      "jekte": 4462,
      "istration": 4463,
      "ĠRussia": 4464,
      "ĠWort": 4465,
      "sichtlich": 4466,
      "-,": 4467,
      "schn": 4468,
      "Ġsoon": 4469,
      "chs": 4470,
      "onstr": 4471,
      "ĠDaher": 4472,
      "Ġlot": 4473,
      "deut": 4474,
      "ĠEinsatz": 4475,
      "Ġcomfortable": 4476,
      "wÃ¼rd": 4477,
      "ĠReihe": 4478,
      "ĠAug": 4479,
      "ĠGeschichte": 4480,
      "Ġerreicht": 4481,
      "ĠÃ¶": 4482,
      "ĠWel": 4483,
      "handlung": 4484,
      "ama": 4485,
      "Ġmess": 4486,
      "Ġcases": 4487,
      "ĠBy": 4488,
      "Ġpool": 4489,
      "Ġmaxim": 4490,
      "tended": 4491,
      "ĠKÃ¶n": 4492,
      "ips": 4493,
      "ĠAuÃŁer": 4494,
      "Ġnegotiations": 4495,
      "andid": 4496,
      "crib": 4497,
      "best": 4498,
      "techn": 4499,
      "nehm": 4500,
      "play": 4501,
      "gliche": 4502,
      "ĠCour": 4503,
      "Ġwerde": 4504,
      "bl": 4505,
      "ĠberÃ¼cksicht": 4506,
      "Ġcomes": 4507,
      "Ġsituated": 4508,
      "immungen": 4509,
      "ĠMore": 4510,
      "Ġhalten": 4511,
      "ĠDate": 4512,
      "Ġtarge": 4513,
      "ĠHeraus": 4514,
      "Ġnam": 4515,
      "ĠMÃ¶glichkeiten": 4516,
      "ĠFrieden": 4517,
      "ense": 4518,
      "ĠBook": 4519,
      "Ġeither": 4520,
      "ĠProt": 4521,
      "teilt": 4522,
      "Ġmarkets": 4523,
      "Ġprevious": 4524,
      "ĠBre": 4525,
      "ipped": 4526,
      "ĠerfÃ¼": 4527,
      "ĠMot": 4528,
      "dle": 4529,
      "orge": 4530,
      "arbeitung": 4531,
      "Ġrestaurant": 4532,
      "Ã¤tzen": 4533,
      "Ġeinges": 4534,
      "geln": 4535,
      "hes": 4536,
      "teilen": 4537,
      "merksam": 4538,
      "Ġregional": 4539,
      "ĠNetz": 4540,
      "hend": 4541,
      "itionen": 4542,
      "prise": 4543,
      "Ġdeveloping": 4544,
      "ĠFrance": 4545,
      "lling": 4546,
      "ĠBlick": 4547,
      "estern": 4548,
      "ĠDebatte": 4549,
      "Ġeverything": 4550,
      "ĠDamen": 4551,
      "ĠÃ¼bern": 4552,
      "ĠErweit": 4553,
      "Ġindic": 4554,
      "gern": 4555,
      "TM": 4556,
      "ĠSouth": 4557,
      "ump": 4558,
      "inner": 4559,
      "ĠÃĸff": 4560,
      "Ġcreated": 4561,
      "bildung": 4562,
      "Ġausgest": 4563,
      "Ġminim": 4564,
      "Ġ60": 4565,
      "abel": 4566,
      "Ġfinal": 4567,
      "Ġsurround": 4568,
      "stall": 4569,
      "TO": 4570,
      "ĠAktiv": 4571,
      "auen": 4572,
      "zeigt": 4573,
      "ĠCor": 4574,
      "ĠArbeitspl": 4575,
      "date": 4576,
      "mut": 4577,
      "istet": 4578,
      "ĠErklÃ¤r": 4579,
      "Ġarbeiten": 4580,
      "Ġunique": 4581,
      "ĠfÃ¼nf": 4582,
      "Ġimprove": 4583,
      "rieben": 4584,
      "Ġstates": 4585,
      "ĠSchwe": 4586,
      "Ġamb": 4587,
      "ĠWissen": 4588,
      "ĠPresidency": 4589,
      "ĠhÃ¶ch": 4590,
      "attet": 4591,
      "erseits": 4592,
      "ĠHinblick": 4593,
      "ĠkÃ¶nnten": 4594,
      "Ġverschiedene": 4595,
      "ĠMod": 4596,
      "Ġlater": 4597,
      "ĠHoch": 4598,
      "Ġprices": 4599,
      "Ġmer": 4600,
      "Ġvorgeschlagen": 4601,
      "ging": 4602,
      "Ġpict": 4603,
      "ĠMont": 4604,
      "mark": 4605,
      "ĠâĤ¬": 4606,
      "Ġeducation": 4607,
      "ĠKle": 4608,
      "trie": 4609,
      "Ġaccommod": 4610,
      "ĠIntegr": 4611,
      "Ġschwier": 4612,
      "anten": 4613,
      "iable": 4614,
      "13": 4615,
      "ĠSteuer": 4616,
      "ĠFrench": 4617,
      "unik": 4618,
      "urt": 4619,
      "RO": 4620,
      "Ġimmed": 4621,
      "ka": 4622,
      "Ġtrue": 4623,
      "usst": 4624,
      "ichen": 4625,
      "Ġkonkre": 4626,
      "gegen": 4627,
      "Ġadditional": 4628,
      "ĠâĢĺ": 4629,
      "ĠSport": 4630,
      "Ġaltern": 4631,
      "Ġalmost": 4632,
      "Ġstor": 4633,
      "haps": 4634,
      "vin": 4635,
      "Ġbleiben": 4636,
      "Ġincluded": 4637,
      "Ġgemeinsame": 4638,
      "Ġque": 4639,
      "haft": 4640,
      "onn": 4641,
      "Ġmonitor": 4642,
      "Ġdemocratic": 4643,
      "Ġliving": 4644,
      "ulate": 4645,
      "ĠverfÃ¼gt": 4646,
      "Ġthus": 4647,
      "Ġcut": 4648,
      "eless": 4649,
      "ipment": 4650,
      "ĠRoom": 4651,
      "Ġanalys": 4652,
      "Ġactually": 4653,
      "mm": 4654,
      "ĠermÃ¶glicht": 4655,
      "igte": 4656,
      "ĠMinuten": 4657,
      "Ġcontract": 4658,
      "bahn": 4659,
      "Ġfort": 4660,
      "ĠInstitutionen": 4661,
      "ĠPlan": 4662,
      "sprÃ¤sident": 4663,
      "Ġclimate": 4664,
      "ĠDiskuss": 4665,
      "ĠAuswirkungen": 4666,
      "Ġidea": 4667,
      "ibr": 4668,
      "ÑĢ": 4669,
      "Ġfile": 4670,
      "pendent": 4671,
      "Ġseen": 4672,
      "Ġschrift": 4673,
      "iÃŁt": 4674,
      "Ġtravel": 4675,
      "Ġdocument": 4676,
      "ĠPlatz": 4677,
      "ingt": 4678,
      "kra": 4679,
      "Ġwide": 4680,
      "ĠKir": 4681,
      "rechts": 4682,
      "IP": 4683,
      "int": 4684,
      "ĠAff": 4685,
      "ĠKraft": 4686,
      "fil": 4687,
      "ental": 4688,
      "ĠLis": 4689,
      "ĠEC": 4690,
      "Ġprogram": 4691,
      "wegen": 4692,
      "ielle": 4693,
      "ikt": 4694,
      "lle": 4695,
      "ĠÃĦnderungsantrag": 4696,
      "Ġencour": 4697,
      "ĠUnser": 4698,
      "ĠDoch": 4699,
      "Ġjoin": 4700,
      "lack": 4701,
      "Ġlack": 4702,
      "ĠRechn": 4703,
      "ĠApart": 4704,
      "ĠProzess": 4705,
      "Ġakzept": 4706,
      "Ñģ": 4707,
      "Ġreceive": 4708,
      "Ġhatten": 4709,
      "Ġhold": 4710,
      "Ġtats": 4711,
      "ios": 4712,
      "jenigen": 4713,
      "ĠvollstÃ¤nd": 4714,
      "laden": 4715,
      "Ġknowledge": 4716,
      "Ġzeigt": 4717,
      "ĠDienstleistungen": 4718,
      "ĠForschung": 4719,
      "ilar": 4720,
      "Ġtype": 4721,
      "ires": 4722,
      "ommer": 4723,
      "ĠStrategie": 4724,
      "ĠTatsache": 4725,
      "mail": 4726,
      "barkeit": 4727,
      "Ġdialog": 4728,
      "Ġappropriate": 4729,
      "ĠDis": 4730,
      "ester": 4731,
      "Ġerforderlich": 4732,
      "rachten": 4733,
      "ĠSicherheits": 4734,
      "Ġfunds": 4735,
      "ĠfÃ¼hrt": 4736,
      "hinder": 4737,
      "Ġvill": 4738,
      "Ġwirtschaftlichen": 4739,
      "Ġschein": 4740,
      "Ġbisher": 4741,
      "Ġofficial": 4742,
      "Ġheld": 4743,
      "frei": 4744,
      "ĠBeg": 4745,
      "Ġenl": 4746,
      "ĠFrÃ¼hstÃ¼ck": 4747,
      "Ġeuro": 4748,
      "ĠAusdruck": 4749,
      "ogra": 4750,
      "Ġ27": 4751,
      "ĠAnt": 4752,
      "Ġprocedure": 4753,
      "15": 4754,
      "ĠLandes": 4755,
      "Ġallgemein": 4756,
      "ĠNie": 4757,
      "zer": 4758,
      "ĠRad": 4759,
      "setzen": 4760,
      "Ġhapp": 4761,
      "Ġoutside": 4762,
      "iellen": 4763,
      "ĠRegionen": 4764,
      "Ġgesamten": 4765,
      "Ġassoc": 4766,
      "adurch": 4767,
      "ĠErgebnis": 4768,
      "folgen": 4769,
      "ĠWebs": 4770,
      "ĠAbgeordneten": 4771,
      "ĠIran": 4772,
      "ĠArch": 4773,
      "auber": 4774,
      "iance": 4775,
      "Ġthing": 4776,
      "ĠerwÃ¤": 4777,
      "ctors": 4778,
      "feld": 4779,
      "anced": 4780,
      "Ġpublish": 4781,
      "Ġangeb": 4782,
      "ĠVertre": 4783,
      "Ġdesigned": 4784,
      "Ġschool": 4785,
      "Ġworkers": 4786,
      "Ð¾Ð": 4787,
      "ĠPortug": 4788,
      "ound": 4789,
      "Ġebenso": 4790,
      "Ġeinzelnen": 4791,
      "ĠFamilien": 4792,
      "ams": 4793,
      "Ġpropert": 4794,
      "Ġdarum": 4795,
      "Ġsuggest": 4796,
      "des": 4797,
      "atisf": 4798,
      "ork": 4799,
      "Ġfunktion": 4800,
      "ĠCom": 4801,
      "Ġrate": 4802,
      "ĠErst": 4803,
      "ĠSchritt": 4804,
      "ternal": 4805,
      "fragen": 4806,
      "stead": 4807,
      "ĠKolleginnen": 4808,
      "Ġmajority": 4809,
      "Ġfeatures": 4810,
      "ood": 4811,
      "oper": 4812,
      "ko": 4813,
      "Ġprofessional": 4814,
      "ĠLond": 4815,
      "ieÃŁen": 4816,
      "Ã¶glichen": 4817,
      "Ġfamous": 4818,
      "ĠDu": 4819,
      "Ġdanken": 4820,
      "orf": 4821,
      "Ã¤hlt": 4822,
      "iews": 4823,
      "ĠspÃ¤ter": 4824,
      "ĠFunktion": 4825,
      "Ġrelev": 4826,
      "Ġentwickelt": 4827,
      "ĠHers": 4828,
      "Ġhon": 4829,
      "ĠAmerican": 4830,
      "imme": 4831,
      "fel": 4832,
      "clud": 4833,
      "isieren": 4834,
      "Ġthroughout": 4835,
      "ĠDec": 4836,
      "cep": 4837,
      "jÃ¤hr": 4838,
      "Ġearly": 4839,
      "Ġcommunication": 4840,
      "ĠBinnen": 4841,
      "ĠMitglieder": 4842,
      "ĠFund": 4843,
      "Ġcop": 4844,
      "ĠGeneral": 4845,
      "Ġdraw": 4846,
      "Ġfive": 4847,
      "otos": 4848,
      "Ġdenke": 4849,
      "Ġanswer": 4850,
      "Ġlooking": 4851,
      "Ã¤nden": 4852,
      "va": 4853,
      "Ġangenommen": 4854,
      "Ġexclus": 4855,
      "igration": 4856,
      "lÃ¤ndern": 4857,
      "mitteln": 4858,
      "Ġcustomer": 4859,
      "Ġimpact": 4860,
      "ĠWest": 4861,
      "oid": 4862,
      "indest": 4863,
      "verfahren": 4864,
      "ĠAuÃŁerdem": 4865,
      "Ġbetra": 4866,
      "Ã¤sst": 4867,
      "iens": 4868,
      "Ġbehand": 4869,
      "Ġtransl": 4870,
      "Ġemphas": 4871,
      "Ġtakes": 4872,
      "Ġspace": 4873,
      "ĠÃĦnderungsantrÃ¤ge": 4874,
      "Ġdownload": 4875,
      "Ġhours": 4876,
      "ĠDenn": 4877,
      "ĠAcc": 4878,
      "ĠVersion": 4879,
      "ĠZur": 4880,
      "Ġworks": 4881,
      "Ġdoing": 4882,
      "enken": 4883,
      "ĠAntwort": 4884,
      "fÃ¤higkeit": 4885,
      "Ġpotential": 4886,
      "Ġacross": 4887,
      "Ġstrengthen": 4888,
      "cer": 4889,
      "Ġwider": 4890,
      "ĠVerhandlungen": 4891,
      "Ġnormal": 4892,
      "ĠBereichen": 4893,
      "Ġenable": 4894,
      "arbeitet": 4895,
      "Ġinternationale": 4896,
      "cure": 4897,
      "Ġjedem": 4898,
      "Ã¼lt": 4899,
      "Ġlinks": 4900,
      "Ġcertainly": 4901,
      "ĠRis": 4902,
      "Ã¤ndert": 4903,
      "ĠGemeinschafts": 4904,
      "ĠMil": 4905,
      "Ġunivers": 4906,
      "Ġever": 4907,
      "pression": 4908,
      "Ġdate": 4909,
      "ĠNorth": 4910,
      "Ġparts": 4911,
      "Ġconsequ": 4912,
      "Ġproper": 4913,
      "kn": 4914,
      "Ġ*": 4915,
      "ĠweiÃŁ": 4916,
      "kÃ¤mpfung": 4917,
      "ĠPosition": 4918,
      "ĠhÃ¤tte": 4919,
      "ĠWÃ¤hr": 4920,
      "Ġsolid": 4921,
      "Ġgemeinsam": 4922,
      "Ġkonnte": 4923,
      "Ġbefinden": 4924,
      "Ġaud": 4925,
      "ĠZum": 4926,
      "ological": 4927,
      "Ġ2002": 4928,
      "ĠAugust": 4929,
      "ET": 4930,
      "liegen": 4931,
      "kr": 4932,
      "ĠStaats": 4933,
      "ĠÃ¤uÃŁer": 4934,
      "ĠDialog": 4935,
      "Ġcolleag": 4936,
      "Ġ80": 4937,
      "zif": 4938,
      "ĠVereinigten": 4939,
      "uren": 4940,
      "Ġguest": 4941,
      "Ġusers": 4942,
      "Ġvorh": 4943,
      "onom": 4944,
      "Ġsetzen": 4945,
      "ĠLondon": 4946,
      "prÃ¤": 4947,
      "Ġtraditional": 4948,
      "rad": 4949,
      "Ġinvestment": 4950,
      "Ġgleichzeitig": 4951,
      "ĠHandels": 4952,
      "bru": 4953,
      "Ġtook": 4954,
      "Ġneues": 4955,
      "Ġmechan": 4956,
      "Ã¤llen": 4957,
      "Ã¶sen": 4958,
      "Ġweiteren": 4959,
      "Ġrecord": 4960,
      "ĠBeziehungen": 4961,
      "Ġca": 4962,
      "erei": 4963,
      "hab": 4964,
      "Ġdivers": 4965,
      "ĠLuft": 4966,
      "ĠPa": 4967,
      "ĠFÃ¼hr": 4968,
      "ĠerhÃ¶": 4969,
      "chsel": 4970,
      "ĠPak": 4971,
      "Ġumfassen": 4972,
      "Ġeth": 4973,
      "ĠZentrum": 4974,
      "Ġexisting": 4975,
      "ĠBevÃ¶lkerung": 4976,
      "Ġconcerns": 4977,
      "Ġamount": 4978,
      "Ġresol": 4979,
      "Ġcomplex": 4980,
      "stre": 4981,
      "ĠNat": 4982,
      "aly": 4983,
      "Ġeigent": 4984,
      "ias": 4985,
      "Ġhinter": 4986,
      "ille": 4987,
      "Ã¼gen": 4988,
      "ĠWerk": 4989,
      "ĠheiÃŁt": 4990,
      "Ġprogrammes": 4991,
      "Ġerhe": 4992,
      "ĠTurkey": 4993,
      "Ġoriginal": 4994,
      "hung": 4995,
      "Ġconnection": 4996,
      "teid": 4997,
      "uted": 4998,
      "AM": 4999,
      "Ġcross": 5000,
      "ĠTerror": 5001,
      "ĠSÃ¼d": 5002,
      "ĠKos": 5003,
      "oking": 5004,
      "kei": 5005,
      "ĠVertra": 5006,
      "Ġzuf": 5007,
      "halte": 5008,
      "ini": 5009,
      "ĠAbkommen": 5010,
      "Ġlat": 5011,
      "ava": 5012,
      "Ġ2001": 5013,
      "ĠLeit": 5014,
      "ĠLet": 5015,
      "griff": 5016,
      "ball": 5017,
      "alter": 5018,
      "ĠOnline": 5019,
      "Ġneben": 5020,
      "Ġrelig": 5021,
      "ĠProgramme": 5022,
      "Ã¤ss": 5023,
      "aring": 5024,
      "Ġmentioned": 5025,
      "wie": 5026,
      "ara": 5027,
      "ĠInteressen": 5028,
      "Ġconcerning": 5029,
      "ĠProz": 5030,
      "Ġmodel": 5031,
      "sehen": 5032,
      "lÃ¤nder": 5033,
      "range": 5034,
      "ĠHol": 5035,
      "fortun": 5036,
      "Ġalthough": 5037,
      "ĠFlugh": 5038,
      "Ġtele": 5039,
      "ĠAmerica": 5040,
      "orre": 5041,
      "Ġjede": 5042,
      "Ġparliament": 5043,
      "AC": 5044,
      "ĠAufgabe": 5045,
      "Ġwriting": 5046,
      "ĠGovernment": 5047,
      "Ġhelfen": 5048,
      "Ġreasons": 5049,
      "Ġlux": 5050,
      "lang": 5051,
      "Ġaktiv": 5052,
      "Ġabsolute": 5053,
      "ox": 5054,
      "ĠvÃ¶": 5055,
      "ole": 5056,
      "ĠCourt": 5057,
      "ande": 5058,
      "ĠBeitrag": 5059,
      "affung": 5060,
      "ĠHandel": 5061,
      "ĠInform": 5062,
      "Ġdemonstr": 5063,
      "Ġarg": 5064,
      "Ġcard": 5065,
      "richtungen": 5066,
      "esh": 5067,
      "Ġdecisions": 5068,
      "ĠFÃ¶rderung": 5069,
      "ĠPC": 5070,
      "Ġleading": 5071,
      "Ġaware": 5072,
      "Ġcompletely": 5073,
      "face": 5074,
      "ĠHigh": 5075,
      "hlen": 5076,
      "Ġbuilt": 5077,
      "Ġnothing": 5078,
      "ĠTÃ¼rkei": 5079,
      "ipl": 5080,
      "Ġrelated": 5081,
      "ĠgegenwÃ¤rt": 5082,
      "ĠKontrolle": 5083,
      "ĠMor": 5084,
      "ĠEnglish": 5085,
      "ĠCD": 5086,
      "Ġjoint": 5087,
      "temp": 5088,
      "ĠVerpflicht": 5089,
      "Ġextens": 5090,
      "ĠSy": 5091,
      "Ġgame": 5092,
      "Ġgelten": 5093,
      "Ġbeit": 5094,
      "esserung": 5095,
      "Ġgestellt": 5096,
      "ĠThemen": 5097,
      "Ġfriendly": 5098,
      "ayer": 5099,
      "Ġhalf": 5100,
      "Ġcommunity": 5101,
      "ĠSchlussel": 5102,
      "zÃ¶s": 5103,
      "Ġempf": 5104,
      "ĠMag": 5105,
      "ĠFuÃŁ": 5106,
      "ĠListe": 5107,
      "Ġrund": 5108,
      "Ġintens": 5109,
      "Ġwichtigen": 5110,
      "Ġconflic": 5111,
      "Ġkleine": 5112,
      "arity": 5113,
      "iddle": 5114,
      "Ã¼sse": 5115,
      "formen": 5116,
      "Ġmeinen": 5117,
      "ĠStabil": 5118,
      "ba": 5119,
      "Ġbasic": 5120,
      "ĠEinzel": 5121,
      "ED": 5122,
      "Ġunseres": 5123,
      "ĠSee": 5124,
      "amera": 5125,
      "Ġenlarge": 5126,
      "Ġassess": 5127,
      "Ġcommittee": 5128,
      "Ġprakt": 5129,
      "ĠWettbewerbs": 5130,
      "una": 5131,
      "ĠFebru": 5132,
      "Ġculture": 5133,
      "ush": 5134,
      "Ġpractice": 5135,
      "Ġfront": 5136,
      "ĠVerbindung": 5137,
      "Ġholiday": 5138,
      "ĠErweiterung": 5139,
      "orten": 5140,
      "Ġpopulation": 5141,
      "uffer": 5142,
      "quis": 5143,
      "Ġincludes": 5144,
      "fÃ¼hren": 5145,
      "ĠBarcel": 5146,
      "Ġmilitary": 5147,
      "odell": 5148,
      "Ġinternet": 5149,
      "Ġdigital": 5150,
      "Ġschwer": 5151,
      "Ġagreements": 5152,
      "ĠKampf": 5153,
      "more": 5154,
      "Re": 5155,
      "grat": 5156,
      "Ġverd": 5157,
      "ID": 5158,
      "gl": 5159,
      "fluss": 5160,
      "Ġspr": 5161,
      "itable": 5162,
      "Ġconsult": 5163,
      "SE": 5164,
      "Ġallows": 5165,
      "Ġgab": 5166,
      "gangenen": 5167,
      "Ġbecom": 5168,
      "Ġliegen": 5169,
      "inden": 5170,
      "termin": 5171,
      "spe": 5172,
      "Ġmedia": 5173,
      "ĠReform": 5174,
      "Ġoblig": 5175,
      "lies": 5176,
      "lant": 5177,
      "Ġgestimmt": 5178,
      "Ġ$": 5179,
      "Ġspezie": 5180,
      "nissen": 5181,
      "Ġerinn": 5182,
      "Ġcommer": 5183,
      "bedingungen": 5184,
      "Ġjedes": 5185,
      "ĠAusschusses": 5186,
      "Ġadvant": 5187,
      "Ġsearch": 5188,
      "Ġ1999": 5189,
      "ĠSup": 5190,
      "Ġobjectives": 5191,
      "Ġ-,": 5192,
      "zunehmen": 5193,
      ".,": 5194,
      "osen": 5195,
      "Ġbleibt": 5196,
      "Ġerr": 5197,
      "ĠSince": 5198,
      "Ġbody": 5199,
      "Ġconclus": 5200,
      "ills": 5201,
      "Ġchoice": 5202,
      "istrat": 5203,
      "zeugen": 5204,
      "licken": 5205,
      "Ġbekommen": 5206,
      "ĠRel": 5207,
      "Ġwa": 5208,
      "ĠKonferenz": 5209,
      "ĠChe": 5210,
      "ĠVis": 5211,
      "itness": 5212,
      "iterran": 5213,
      "Mail": 5214,
      "Ġwegen": 5215,
      "Ġreceived": 5216,
      "Ġvalues": 5217,
      "Ġjobs": 5218,
      "ĠVerordnung": 5219,
      "ĠwÃ¼n": 5220,
      "Ġsimple": 5221,
      "Ã¤lle": 5222,
      "iated": 5223,
      "ĠEntschlieÃŁung": 5224,
      "Ġemer": 5225,
      "Ġtransfer": 5226,
      "ĠIS": 5227,
      "rachen": 5228,
      "annte": 5229,
      "alien": 5230,
      "ovo": 5231,
      "vement": 5232,
      "Ġnahe": 5233,
      "struments": 5234,
      "Ġsatisf": 5235,
      "ying": 5236,
      "Ġfail": 5237,
      "ĠPass": 5238,
      "Ġwarm": 5239,
      "ĠLux": 5240,
      "Ġestablished": 5241,
      "ason": 5242,
      "len": 5243,
      "ĠThank": 5244,
      "ĠStrand": 5245,
      "Ġpoor": 5246,
      "ĠNutzung": 5247,
      "Ġprim": 5248,
      "Ġangem": 5249,
      "Ġbess": 5250,
      "Ġcomputer": 5251,
      "ĠVolk": 5252,
      "Ġapplications": 5253,
      "Ġplann": 5254,
      "ĠLisbon": 5255,
      "Ġequipment": 5256,
      "Ġpackage": 5257,
      "jahr": 5258,
      "ĠNow": 5259,
      "ĠHome": 5260,
      "ico": 5261,
      "mbol": 5262,
      "ery": 5263,
      "geschlossen": 5264,
      "ĠKop": 5265,
      "Ã¶rdern": 5266,
      "Ġrichtig": 5267,
      "Ġregarding": 5268,
      "ĠBehÃ¶rden": 5269,
      "Ġcapac": 5270,
      "Ġperformance": 5271,
      "Ã³n": 5272,
      "Ġmove": 5273,
      "Ġsag": 5274,
      "ourn": 5275,
      "Ġcenter": 5276,
      "such": 5277,
      "pite": 5278,
      "ikanischen": 5279,
      "Ġharmon": 5280,
      "Ġlok": 5281,
      "Ġwunder": 5282,
      "ĠPrior": 5283,
      "ĠNotwend": 5284,
      "Ġerlaub": 5285,
      "abon": 5286,
      "ĠZe": 5287,
      "ĠServ": 5288,
      "ĠAugen": 5289,
      "rab": 5290,
      "Ã¶st": 5291,
      "sitz": 5292,
      "ĠVolks": 5293,
      "Ġgerne": 5294,
      "oo": 5295,
      "ennung": 5296,
      "Ġjud": 5297,
      "dom": 5298,
      "Ġfiles": 5299,
      "uck": 5300,
      "ĠLiss": 5301,
      "Ġimage": 5302,
      "Ġdurchge": 5303,
      "Ġwichtigsten": 5304,
      "Ġattack": 5305,
      "ĠDamit": 5306,
      "vious": 5307,
      "Ġiniti": 5308,
      "Ġverantwort": 5309,
      "ĠMitarbeiter": 5310,
      "Ġpleas": 5311,
      "pected": 5312,
      "Ġpurch": 5313,
      "Ġagricultural": 5314,
      "pass": 5315,
      "eden": 5316,
      "ĠAufent": 5317,
      "Ġsun": 5318,
      "Ġ+": 5319,
      "essour": 5320,
      "uclear": 5321,
      "ĠunabhÃ¤ng": 5322,
      "Ġbroad": 5323,
      "Ġobjective": 5324,
      "ĠCons": 5325,
      "ĠUrlaub": 5326,
      "erve": 5327,
      "Ġquickly": 5328,
      "Ġspend": 5329,
      "ĠOber": 5330,
      "icles": 5331,
      "ĠForder": 5332,
      "Ġcredit": 5333,
      "inne": 5334,
      "Ġmehrere": 5335,
      "ĠKrise": 5336,
      "Ġhinsichtlich": 5337,
      "ĠHere": 5338,
      "Ġcru": 5339,
      "Ġreports": 5340,
      "Ġstop": 5341,
      "Ġface": 5342,
      "Ġwonder": 5343,
      "Ġkeyword": 5344,
      "Ġherr": 5345,
      "ĠReise": 5346,
      "Ġbelow": 5347,
      "ĠFrankreich": 5348,
      "flÃ¤": 5349,
      "Ġsound": 5350,
      "osed": 5351,
      "ĠIT": 5352,
      "Ġgoods": 5353,
      "ĠImm": 5354,
      "gesamt": 5355,
      "ĠVerbesserung": 5356,
      "ĠAffairs": 5357,
      "este": 5358,
      "imension": 5359,
      "ĠImp": 5360,
      "ĠSant": 5361,
      "Ġfran": 5362,
      "Ã¶hn": 5363,
      "Ġganzen": 5364,
      "Ġganze": 5365,
      "Ver": 5366,
      "Ġeinger": 5367,
      "Ġindustrial": 5368,
      "stellungen": 5369,
      "ros": 5370,
      "Ġnachhalt": 5371,
      "Ġwobei": 5372,
      "Ġparty": 5373,
      "wide": 5374,
      "seit": 5375,
      "undes": 5376,
      "ĠBitte": 5377,
      "ĠLissabon": 5378,
      "ĠGruppe": 5379,
      "ĠUkra": 5380,
      "ĠAuswahl": 5381,
      "nern": 5382,
      "Ġsouth": 5383,
      "ĠWochen": 5384,
      "ften": 5385,
      "Ġself": 5386,
      "ĠenthÃ¤lt": 5387,
      "Fra": 5388,
      "ĠermÃ¶glichen": 5389,
      "ĠBad": 5390,
      "Ġleaders": 5391,
      "chter": 5392,
      "Ġtrotz": 5393,
      "Ġexperien": 5394,
      "Ġoption": 5395,
      "Ġbenefit": 5396,
      "Ġnote": 5397,
      "brigen": 5398,
      "ernen": 5399,
      "statt": 5400,
      "ĠVeranst": 5401,
      "Ġtreatment": 5402,
      "Ġhuge": 5403,
      "Ġsense": 5404,
      "Ġpopular": 5405,
      "emb": 5406,
      "Ġcontains": 5407,
      "ĠschÃ¶n": 5408,
      "teller": 5409,
      "Ġachieved": 5410,
      "Ġcode": 5411,
      "ĠAmend": 5412,
      "gef": 5413,
      "ĠCity": 5414,
      "ps": 5415,
      "erc": 5416,
      "aving": 5417,
      "gelt": 5418,
      "Ġseems": 5419,
      "ĠGree": 5420,
      "40": 5421,
      "18": 5422,
      "ĠLink": 5423,
      "itect": 5424,
      "mann": 5425,
      "Ġinitiative": 5426,
      "Ġindeed": 5427,
      "ĠEast": 5428,
      "schlieÃŁend": 5429,
      "Ġpassen": 5430,
      "entwick": 5431,
      "Ġgarant": 5432,
      "lla": 5433,
      "iveness": 5434,
      "ĠWachstum": 5435,
      "sterreich": 5436,
      "ĠSim": 5437,
      "Ġbeein": 5438,
      "opping": 5439,
      "lam": 5440,
      "Ġrail": 5441,
      "Ġzeigen": 5442,
      "wander": 5443,
      "ĠBinnenmarkt": 5444,
      "Ġleben": 5445,
      "Ġrecently": 5446,
      "17": 5447,
      "ĠDokument": 5448,
      "lassen": 5449,
      "ĠSchaffung": 5450,
      "otion": 5451,
      "Ã¤um": 5452,
      "ĠAnfang": 5453,
      "ĠPan": 5454,
      "Ġgrund": 5455,
      "Ġill": 5456,
      "istische": 5457,
      "mÃ¶glichkeit": 5458,
      "Ġlos": 5459,
      "ĠGelegenheit": 5460,
      "Ġspac": 5461,
      "mor": 5462,
      "erweise": 5463,
      "ĠMacht": 5464,
      "put": 5465,
      "Ġcorrect": 5466,
      "Ġengine": 5467,
      "Ġcarry": 5468,
      "ĠChin": 5469,
      "ĠStandard": 5470,
      "iment": 5471,
      "Ġvict": 5472,
      "Ġdouble": 5473,
      "ĠBarcelona": 5474,
      "ĠBef": 5475,
      "Ġmittel": 5476,
      "Ġcongrat": 5477,
      "Ġverg": 5478,
      "Ġveh": 5479,
      "Ġbeginning": 5480,
      "ĠFinally": 5481,
      "ania": 5482,
      "Ġruh": 5483,
      "ĠClub": 5484,
      "ĠGebÃ¤": 5485,
      "Ġdialogue": 5486,
      "kennen": 5487,
      "Ġhighly": 5488,
      "ienste": 5489,
      "ĠUp": 5490,
      "ĠFach": 5491,
      "ĠGlobal": 5492,
      "Ġ28": 5493,
      "Ġnice": 5494,
      "itel": 5495,
      "oppel": 5496,
      "Ġlevels": 5497,
      "Ġ!": 5498,
      "fonds": 5499,
      "fon": 5500,
      "Ġseries": 5501,
      "VD": 5502,
      "ĠJune": 5503,
      "haupt": 5504,
      "Ġoil": 5505,
      "ĠGewalt": 5506,
      "Ġspielen": 5507,
      "Ġfloor": 5508,
      "En": 5509,
      "ĠfrÃ¼": 5510,
      "ĠLes": 5511,
      "ĠInnov": 5512,
      "pid": 5513,
      "Ġefficient": 5514,
      "Ġpresented": 5515,
      "ĠSocial": 5516,
      "bre": 5517,
      "ĠVerwendung": 5518,
      "wertungen": 5519,
      "ĠSome": 5520,
      "onse": 5521,
      "Ġheut": 5522,
      "Ġeveryone": 5523,
      "ÃŁt": 5524,
      "ĠDarÃ¼ber": 5525,
      "Ġscient": 5526,
      "Ġequipped": 5527,
      "stances": 5528,
      "Ġsuccessful": 5529,
      "ĠErgebnisse": 5530,
      "ĠvÃ¶llig": 5531,
      "Ġgovernments": 5532,
      "ĠCentral": 5533,
      "Ġclick": 5534,
      "Ġintegration": 5535,
      "Ġgarden": 5536,
      "icien": 5537,
      "ĠPersonal": 5538,
      "Ã¤tigkeit": 5539,
      "ostels": 5540,
      "vorschriften": 5541,
      "ĠManagement": 5542,
      "Ġactive": 5543,
      "ĠAngebot": 5544,
      "Ġverbessern": 5545,
      "Ġsuper": 5546,
      "Ġcomprom": 5547,
      "ĠTeam": 5548,
      "ĠAmster": 5549,
      "....": 5550,
      "ĠVoraus": 5551,
      "ĠNotwendigkeit": 5552,
      "lace": 5553,
      "Ġred": 5554,
      "Ġut": 5555,
      "Ġeinzig": 5556,
      "ĠMich": 5557,
      "Ġexchange": 5558,
      "fortunately": 5559,
      "fordert": 5560,
      "ĠlÃ¤sst": 5561,
      "ĠKern": 5562,
      "ĠZweit": 5563,
      "Ġkulture": 5564,
      "anzen": 5565,
      "Ġincreased": 5566,
      "Ġgrundlegen": 5567,
      "ley": 5568,
      "ĠLiefer": 5569,
      "ĠMaterial": 5570,
      "Ġ500": 5571,
      "Ġfurn": 5572,
      "utt": 5573,
      "Ġcarried": 5574,
      "Ġpain": 5575,
      "ĠAnzahl": 5576,
      "ĠHo": 5577,
      "Ġwhose": 5578,
      "organis": 5579,
      "PE": 5580,
      "Ġfrei": 5581,
      "ĠLeg": 5582,
      "Ġtw": 5583,
      "Ġstage": 5584,
      "mehr": 5585,
      "Ġconsumers": 5586,
      "ĠTage": 5587,
      "ering": 5588,
      "ĠSecond": 5589,
      "abor": 5590,
      "Ã¶rper": 5591,
      "iko": 5592,
      "Ġprinciples": 5593,
      "ature": 5594,
      "Ã¼tzen": 5595,
      "aufen": 5596,
      "Ġverwenden": 5597,
      "ĠAkt": 5598,
      "Ġage": 5599,
      "schw": 5600,
      "isted": 5601,
      "lier": 5602,
      "Ġblock": 5603,
      "Ġsex": 5604,
      "RE": 5605,
      "Ġhigher": 5606,
      "ĠPost": 5607,
      "Ġagreed": 5608,
      "atell": 5609,
      "Ġguten": 5610,
      "ĠgefÃ¤hr": 5611,
      "unt": 5612,
      "Ġsoziale": 5613,
      "Ġdre": 5614,
      "ued": 5615,
      "izien": 5616,
      "OL": 5617,
      "ĠZeitpunkt": 5618,
      "Ġeigene": 5619,
      "ĠWoche": 5620,
      "just": 5621,
      "ĠgroÃŁer": 5622,
      "ĠverfÃ¼gen": 5623,
      "action": 5624,
      "imming": 5625,
      "Ġoffice": 5626,
      "hoben": 5627,
      "bie": 5628,
      "Ġsent": 5629,
      "Ġdang": 5630,
      "pose": 5631,
      "ĠBud": 5632,
      "Ġstra": 5633,
      "buch": 5634,
      "IL": 5635,
      "Ġbathroom": 5636,
      "Ġreviews": 5637,
      "will": 5638,
      "ape": 5639,
      "Ġprofit": 5640,
      "Ġamendment": 5641,
      "Ġcoll": 5642,
      "Ġrat": 5643,
      "Ġdirection": 5644,
      "Ġasked": 5645,
      "wise": 5646,
      "ĠBra": 5647,
      "anner": 5648,
      "Ġpan": 5649,
      "ĠhÃ¤uf": 5650,
      "Ġexpl": 5651,
      "atic": 5652,
      "Ġmal": 5653,
      "...\"": 5654,
      "icherung": 5655,
      "ĠFurther": 5656,
      "Ġsubsid": 5657,
      "loyment": 5658,
      "ĠMiss": 5659,
      "Ġcommercial": 5660,
      "ĠFerien": 5661,
      "aschinen": 5662,
      "Ġchoose": 5663,
      "Ġsupply": 5664,
      "Ġexc": 5665,
      "ĠRussland": 5666,
      "ĠSolid": 5667,
      "Ġtraff": 5668,
      "Ġseek": 5669,
      "ĠverfÃ¼g": 5670,
      "Ġcommitment": 5671,
      "ja": 5672,
      "griffen": 5673,
      "Ġsimilar": 5674,
      "Ġsix": 5675,
      "Ġmeinem": 5676,
      "spiel": 5677,
      "ĠfÃ¶rdern": 5678,
      "trÃ¤ge": 5679,
      "ĠBusiness": 5680,
      "ĠBerg": 5681,
      "ĠIntegration": 5682,
      "Ġ196": 5683,
      "ĠschÃ¶": 5684,
      "umb": 5685,
      "klus": 5686,
      "ĠLÃ¶sungen": 5687,
      "Ġobtain": 5688,
      "ĠMac": 5689,
      "ĠProduktion": 5690,
      "xis": 5691,
      "scht": 5692,
      "atast": 5693,
      "Ġdiskut": 5694,
      "Ġanzu": 5695,
      "rid": 5696,
      "ĠHam": 5697,
      "apt": 5698,
      "Ġperhaps": 5699,
      "ĠJugend": 5700,
      "Ġtell": 5701,
      "mitt": 5702,
      "ĠWein": 5703,
      "ĠkÃ¼nft": 5704,
      "agn": 5705,
      "Ġshows": 5706,
      "Ġgesamte": 5707,
      "ĠzunÃ¤chst": 5708,
      "verstÃ¤ndlich": 5709,
      "ĠMÃ¤n": 5710,
      "iglich": 5711,
      "ĠDan": 5712,
      "ĠTherefore": 5713,
      "IM": 5714,
      "minister": 5715,
      "Ġinfluen": 5716,
      "Ġrates": 5717,
      "Ġnews": 5718,
      "ĠTat": 5719,
      "Ġmatters": 5720,
      "ĠgehÃ¶ren": 5721,
      "Ġobs": 5722,
      "Ġavoid": 5723,
      "Ġaspects": 5724,
      "ahren": 5725,
      "ĠÃĦnderungen": 5726,
      "Ġstress": 5727,
      "Ġadded": 5728,
      "inger": 5729,
      "iles": 5730,
      "Ġshown": 5731,
      "Ġatmosph": 5732,
      "gn": 5733,
      "ĠMaÃŁ": 5734,
      "Ã¤ngt": 5735,
      "Ġgleichen": 5736,
      "usion": 5737,
      "Ġbi": 5738,
      "ufficient": 5739,
      "Ġnuclear": 5740,
      "Ġrein": 5741,
      "ĠBeschÃ¤ftigung": 5742,
      "ĠDevelop": 5743,
      "Ġinnovative": 5744,
      "osp": 5745,
      "Ġformer": 5746,
      "Ġhotels": 5747,
      "Ġpromote": 5748,
      "Ġthanks": 5749,
      "standen": 5750,
      "Ã¤st": 5751,
      "ĠJuni": 5752,
      "Ġvorhanden": 5753,
      "Ġdynam": 5754,
      "ĠKrieg": 5755,
      "fÃ¤lt": 5756,
      "ĠEigen": 5757,
      "Ġcame": 5758,
      "Ġconsidered": 5759,
      "ĠtatsÃ¤chlich": 5760,
      "ĠDez": 5761,
      "pflich": 5762,
      "ĠPers": 5763,
      "cks": 5764,
      "eff": 5765,
      "greifen": 5766,
      "Ġspeed": 5767,
      "lass": 5768,
      "ĠNet": 5769,
      "ĠLog": 5770,
      "ĠRot": 5771,
      "Ġgelegen": 5772,
      "Ã¤ndig": 5773,
      "ĠInde": 5774,
      "irit": 5775,
      "ĠArticle": 5776,
      "Ġsorgen": 5777,
      "ĠMai": 5778,
      "ĠGet": 5779,
      "Ġeffects": 5780,
      "ĠOf": 5781,
      "ĠWahr": 5782,
      "ĠHinter": 5783,
      "ĠverÃ¶ffent": 5784,
      "Ġlik": 5785,
      "akter": 5786,
      "Sch": 5787,
      "Ġlatest": 5788,
      "Ġpossibility": 5789,
      "essourcen": 5790,
      "ĠMicro": 5791,
      "lÃ¶s": 5792,
      "artige": 5793,
      "Ġopportunities": 5794,
      "ĠGolf": 5795,
      "Ġeindeut": 5796,
      "Ã¶ffnet": 5797,
      "li": 5798,
      "ĠverstÃ¤r": 5799,
      "ĠgefÃ¼hrt": 5800,
      "ĠRegierungen": 5801,
      "Ġschriftlich": 5802,
      "ĠInitiative": 5803,
      "ĠErfahrung": 5804,
      "Ġ90": 5805,
      "ously": 5806,
      "ĠZw": 5807,
      "fahrt": 5808,
      "ĠBeschl": 5809,
      "Ġmaterials": 5810,
      "ĠHerzen": 5811,
      "ĠBalk": 5812,
      "ilen": 5813,
      "ĠMehrheit": 5814,
      "ĠDebian": 5815,
      "ĠWÃ¤hrend": 5816,
      "ierenden": 5817,
      "Ġ=": 5818,
      "ored": 5819,
      "ends": 5820,
      "owers": 5821,
      "Ġbehind": 5822,
      "ĠCol": 5823,
      "cript": 5824,
      "Ġdepend": 5825,
      "astic": 5826,
      "ausch": 5827,
      "ĠNieder": 5828,
      "Ġcondition": 5829,
      "Ġerk": 5830,
      "ĠEinfÃ¼hrung": 5831,
      "zub": 5832,
      "ĠStellung": 5833,
      "ĠSum": 5834,
      "Ġsofort": 5835,
      "Ġentwickeln": 5836,
      "Ġernst": 5837,
      "ausschuss": 5838,
      "ĠDon": 5839,
      "ĠWell": 5840,
      "ĠArg": 5841,
      "icy": 5842,
      "ĠProgram": 5843,
      "Ġsetting": 5844,
      "ki": 5845,
      "Ġdraft": 5846,
      "Ġphys": 5847,
      "okoll": 5848,
      "ĠLat": 5849,
      "Ġresponse": 5850,
      "Ġproviding": 5851,
      "Ġaf": 5852,
      "Ġreached": 5853,
      "ĠSpain": 5854,
      "itting": 5855,
      "ĠOrganisation": 5856,
      "Ġcreation": 5857,
      "Ã¼hm": 5858,
      "arent": 5859,
      "ĠDabei": 5860,
      "Ġreview": 5861,
      "ĠgrÃ¶ÃŁten": 5862,
      "Ġeasily": 5863,
      "16": 5864,
      "ĠKÃ¶nig": 5865,
      "where": 5866,
      "ĠRepublic": 5867,
      "ĠÃ¤uÃŁerst": 5868,
      "Ġaccommodation": 5869,
      "Ġ26": 5870,
      "Ġverstehen": 5871,
      "alu": 5872,
      "Ġexternal": 5873,
      "Ġleicht": 5874,
      "altungs": 5875,
      "Ġatmosphere": 5876,
      "ĠRu": 5877,
      "unsch": 5878,
      "gene": 5879,
      "Ġsummer": 5880,
      "Ġprepared": 5881,
      "ĠIN": 5882,
      "Ġrelevant": 5883,
      "Ġ70": 5884,
      "Ġdeath": 5885,
      "zeugt": 5886,
      "iction": 5887,
      "otes": 5888,
      "ĠTransport": 5889,
      "Ġsize": 5890,
      "Ġreduce": 5891,
      "ĠAud": 5892,
      "ĠLauf": 5893,
      "ĠWeiter": 5894,
      "Ġhoff": 5895,
      "Ġexhib": 5896,
      "kraft": 5897,
      "arily": 5898,
      "Ġcriter": 5899,
      "ĠÃĸffent": 5900,
      "Ġsomit": 5901,
      "ĠSil": 5902,
      "Ġschle": 5903,
      "Ã¤cht": 5904,
      "Ġdeta": 5905,
      "ĠAmsterdam": 5906,
      "idel": 5907,
      "Ġsustainable": 5908,
      "ĠgewÃ¤hrleisten": 5909,
      "Ġlediglich": 5910,
      "Ġpressure": 5911,
      "ĠÃł": 5912,
      "Ġdecided": 5913,
      "Ġhohen": 5914,
      "ĠAgr": 5915,
      "uffet": 5916,
      "ĠItaly": 5917,
      "Ġgeschlossen": 5918,
      "rechend": 5919,
      "rang": 5920,
      "ĠInstall": 5921,
      "ĠConvention": 5922,
      "Ġelekt": 5923,
      "itzen": 5924,
      "14": 5925,
      "ney": 5926,
      "Ġprepar": 5927,
      "Ġverpflich": 5928,
      "ĠKonfl": 5929,
      "ĠRatsprÃ¤sident": 5930,
      "istics": 5931,
      "ĠUmgebung": 5932,
      "Ġcondu": 5933,
      "Ġcapacity": 5934,
      "quare": 5935,
      "uel": 5936,
      "ĠLoc": 5937,
      "ĠHÃ¶he": 5938,
      "oz": 5939,
      "Ġgebracht": 5940,
      "ĠIns": 5941,
      "ĠKontakt": 5942,
      "ĠRev": 5943,
      "uern": 5944,
      "Ġterra": 5945,
      "entlich": 5946,
      "Ġcoming": 5947,
      "Ġbeteil": 5948,
      "son": 5949,
      "Ġprob": 5950,
      "Ġ300": 5951,
      "Ġvideo": 5952,
      "ĠOct": 5953,
      "Ġerfolgreich": 5954,
      "Ġsubmitted": 5955,
      "ĠEnts": 5956,
      "Ġactions": 5957,
      "Ġstyle": 5958,
      "ibilities": 5959,
      "ierter": 5960,
      "ĠFamilie": 5961,
      "Ġ''": 5962,
      "ounts": 5963,
      "ĠAktion": 5964,
      "Ġgives": 5965,
      "Ġwirtschaftliche": 5966,
      "estens": 5967,
      "Ġplaces": 5968,
      "stellt": 5969,
      "Ġanderer": 5970,
      "ĠInformations": 5971,
      "ĠVereinbar": 5972,
      "Ġneigh": 5973,
      "Ġdetails": 5974,
      "Ġten": 5975,
      "Ġconcept": 5976,
      "creen": 5977,
      "ĠSprache": 5978,
      "Ġregular": 5979,
      "Ġgross": 5980,
      "Ġsites": 5981,
      "Ġremains": 5982,
      "ĠKommunik": 5983,
      "Ġdep": 5984,
      "Ġarchitect": 5985,
      "Ġproperty": 5986,
      "volle": 5987,
      "Ã©s": 5988,
      "Ġvern": 5989,
      "ulgar": 5990,
      "ĠGemeins": 5991,
      "iately": 5992,
      "ĠCal": 5993,
      "Ġemploye": 5994,
      "ĠStandpunkt": 5995,
      "rig": 5996,
      "kommens": 5997,
      "Be": 5998,
      "Ġenlargement": 5999,
      "maÃŁnahmen": 6000,
      "Ġbestimmte": 6001,
      "sy": 6002,
      "Ġsuffer": 6003,
      "ĠSicht": 6004,
      "Ġcause": 6005,
      "Ġclosed": 6006,
      "ĠWettbewerb": 6007,
      "ĠKomprom": 6008,
      "Te": 6009,
      "tent": 6010,
      "industrie": 6011,
      "ĠBritish": 6012,
      "Ġpriority": 6013,
      "emin": 6014,
      "Ġwww": 6015,
      "rehens": 6016,
      "ĠErachten": 6017,
      "ĠNeben": 6018,
      "Ġerschein": 6019,
      "Ġune": 6020,
      "roat": 6021,
      "Ġausgestattet": 6022,
      "ĠKommissarin": 6023,
      "ĠDecember": 6024,
      "ĠErachtens": 6025,
      "Ġmeines": 6026,
      "ĠBekÃ¤mpfung": 6027,
      "ĠEing": 6028,
      "Ġzweite": 6029,
      "resp": 6030,
      "99": 6031,
      "iture": 6032,
      "Ġdisplay": 6033,
      "ĠAfrica": 6034,
      "ĠParty": 6035,
      "ĠDinge": 6036,
      "Ġleave": 6037,
      "ĠVertrags": 6038,
      "ĠKosovo": 6039,
      "Ġbalance": 6040,
      "zeuge": 6041,
      "hil": 6042,
      "ĠYork": 6043,
      "bert": 6044,
      "Ġannoun": 6045,
      "Ġfal": 6046,
      "Ġisland": 6047,
      "Ġtrain": 6048,
      "ĠFreiheit": 6049,
      "rief": 6050,
      "Ġbestimmten": 6051,
      "ĠMarch": 6052,
      "ĠAdr": 6053,
      "eting": 6054,
      "ĠAlso": 6055,
      "Ġbillion": 6056,
      "lav": 6057,
      "ĠFolgen": 6058,
      "Ġzahlreiche": 6059,
      "Ġamer": 6060,
      "ĠDom": 6061,
      "ĠUkraine": 6062,
      "Ġdescrib": 6063,
      "Ġregister": 6064,
      "Ġobwohl": 6065,
      "ĠWTO": 6066,
      "adem": 6067,
      "ĠStad": 6068,
      "Ġfunding": 6069,
      "Ġpartner": 6070,
      "25": 6071,
      "ĠAspe": 6072,
      "Ġlimited": 6073,
      "Ġconsumer": 6074,
      "mented": 6075,
      "Ã¼ndet": 6076,
      "ĠFehler": 6077,
      "Ġvorgesehen": 6078,
      "Ġassistance": 6079,
      "ĠMuseum": 6080,
      "ĠOpen": 6081,
      "ĠVerkehrs": 6082,
      "ĠItalien": 6083,
      "Ġmovement": 6084,
      "Ġdecl": 6085,
      "ĠBooking": 6086,
      "setzungen": 6087,
      "Ġforms": 6088,
      "ĠKe": 6089,
      "rec": 6090,
      "Ġdiscover": 6091,
      "ĠOkt": 6092,
      "Ġneuer": 6093,
      "ĠFortschritte": 6094,
      "Ġdring": 6095,
      "ĠAktivitÃ¤ten": 6096,
      "inal": 6097,
      "ĠerhÃ¤lt": 6098,
      "atastrop": 6099,
      "Ġx": 6100,
      "Ġelse": 6101,
      "sprÃ¼n": 6102,
      "ĠSpa": 6103,
      "ugs": 6104,
      "legenheiten": 6105,
      "Ġtragen": 6106,
      "ĠEnter": 6107,
      "Ġhighl": 6108,
      "iterranean": 6109,
      "ĠWohl": 6110,
      "ĠFed": 6111,
      "Ġscheint": 6112,
      "ĠÃľberein": 6113,
      "ĠJed": 6114,
      "urr": 6115,
      "Ġprot": 6116,
      "selves": 6117,
      "Ġsport": 6118,
      "Ġtransparen": 6119,
      "ieg": 6120,
      "uert": 6121,
      "Ġwoll": 6122,
      "Ġentde": 6123,
      "Ġsupported": 6124,
      "schnitt": 6125,
      "terne": 6126,
      "ĠÃ¤hn": 6127,
      "ategories": 6128,
      "ĠOpt": 6129,
      "Ġground": 6130,
      "'.": 6131,
      "itzer": 6132,
      "die": 6133,
      "Ġgreen": 6134,
      "Ġbrought": 6135,
      "mÃ¤ÃŁig": 6136,
      "ghan": 6137,
      "Ġsagte": 6138,
      "system": 6139,
      "ĠInstrument": 6140,
      "mission": 6141,
      "bus": 6142,
      "wertung": 6143,
      "iciency": 6144,
      "Ġrule": 6145,
      "PL": 6146,
      "cle": 6147,
      "ĠWestern": 6148,
      "Ġregulations": 6149,
      "Ġnorth": 6150,
      "Ġindependent": 6151,
      "Ġvorlie": 6152,
      "Ġerweit": 6153,
      "ĠauÃŁerdem": 6154,
      "ĠDezember": 6155,
      "Ġallein": 6156,
      "Ġgewor": 6157,
      "Ġfoot": 6158,
      "Ġversuchen": 6159,
      "Ġvirt": 6160,
      "Ġhor": 6161,
      "stitute": 6162,
      "Ġadministrat": 6163,
      "ournal": 6164,
      "ĠMedien": 6165,
      "gesellschaft": 6166,
      "here": 6167,
      "hindern": 6168,
      "Ġeffe": 6169,
      "Ġlimit": 6170,
      "Ġko": 6171,
      "Ġquiet": 6172,
      "ĠbestÃ¤t": 6173,
      "ĠBestimmungen": 6174,
      "reibung": 6175,
      "ehen": 6176,
      "Ġsolchen": 6177,
      "Ġcreating": 6178,
      "etimes": 6179,
      "geber": 6180,
      "stein": 6181,
      "ĠStelle": 6182,
      "Ġdadurch": 6183,
      "Ġunterst": 6184,
      "Ġpleased": 6185,
      "ĠJahrhundert": 6186,
      "Fraktion": 6187,
      "Ġfig": 6188,
      "Ġord": 6189,
      "Ġconstruction": 6190,
      "NG": 6191,
      "Ġerster": 6192,
      "ĠAf": 6193,
      "ĠGruppen": 6194,
      "ĠPreise": 6195,
      "Ġrestaurants": 6196,
      "Ġpurpose": 6197,
      "ĠHar": 6198,
      "ĠgemÃ¤ÃŁ": 6199,
      "Ġvariety": 6200,
      "ĠGefahr": 6201,
      "ĠItalian": 6202,
      "Ġzweiten": 6203,
      "ader": 6204,
      "Ġlic": 6205,
      "ĠJo": 6206,
      "Off": 6207,
      "Ġrepe": 6208,
      "ena": 6209,
      "Ġ1998": 6210,
      "ĠDi": 6211,
      "ĠOper": 6212,
      "ĠStunden": 6213,
      "uis": 6214,
      "Pl": 6215,
      "Ġapartment": 6216,
      "Ġmobile": 6217,
      "ĠJanuary": 6218,
      "Ã¼tzt": 6219,
      "Ġdiscussion": 6220,
      "Ġairport": 6221,
      "ĠfranzÃ¶s": 6222,
      "Ġfriends": 6223,
      "Ġeinzige": 6224,
      "Ġhy": 6225,
      "page": 6226,
      "anischen": 6227,
      "ĠNur": 6228,
      "ĠBenutzer": 6229,
      "ilos": 6230,
      "Ġhohe": 6231,
      "Ġfix": 6232,
      "Ġinsgesamt": 6233,
      "Ġexpla": 6234,
      "Ġdeep": 6235,
      "Ġmessage": 6236,
      "merksamkeit": 6237,
      "Ġbecame": 6238,
      "Ġinstead": 6239,
      "Ġaufgenommen": 6240,
      "Ġproduced": 6241,
      "Ġerheb": 6242,
      "Ġlargest": 6243,
      "ategorien": 6244,
      "Ġexec": 6245,
      "Ġwid": 6246,
      "Ġsus": 6247,
      "ĠPrivat": 6248,
      "ĠKing": 6249,
      "mÃ¶glichkeiten": 6250,
      "unternehmen": 6251,
      "endes": 6252,
      "Ġrenov": 6253,
      "isters": 6254,
      "ĠAufmerksamkeit": 6255,
      "ĠStaat": 6256,
      "ritts": 6257,
      "ĠLast": 6258,
      "Ġthous": 6259,
      "Ġvergangenen": 6260,
      "ĠPunkte": 6261,
      "ĠErklÃ¤rung": 6262,
      "ĠBildung": 6263,
      "igungen": 6264,
      "stag": 6265,
      "Ġrelationship": 6266,
      "besch": 6267,
      "ĠOctober": 6268,
      "ĠUnterk": 6269,
      "ĠSl": 6270,
      "Ġchem": 6271,
      "Ġalten": 6272,
      "Ġbein": 6273,
      "ero": 6274,
      "Ġstudy": 6275,
      "Ġconference": 6276,
      "Ġstability": 6277,
      "ĠBasis": 6278,
      "ĠschlieÃŁlich": 6279,
      "Ġways": 6280,
      "aft": 6281,
      "ĠEntscheidungen": 6282,
      "iker": 6283,
      "Ġobvious": 6284,
      "Ġhost": 6285,
      "Ġgee": 6286,
      "kont": 6287,
      "ĠDet": 6288,
      "Ġinteresting": 6289,
      "arenz": 6290,
      "Ġregards": 6291,
      "Ġaccord": 6292,
      "ĠGed": 6293,
      "Ġ29": 6294,
      "Ã¼rf": 6295,
      "Ġeffort": 6296,
      "bewertungen": 6297,
      "cement": 6298,
      "ĠAlt": 6299,
      "ĠCamp": 6300,
      "Ġboard": 6301,
      "lare": 6302,
      "Ġmeasure": 6303,
      "yond": 6304,
      "Ġsteps": 6305,
      "ĠServices": 6306,
      "legung": 6307,
      "ato": 6308,
      "Ġsafe": 6309,
      "ĠTer": 6310,
      "ĠeinschlieÃŁlich": 6311,
      "ĠDown": 6312,
      "ĠGal": 6313,
      "rÃ¤fte": 6314,
      "Ġstarted": 6315,
      "ĠMÃ¤rz": 6316,
      "ĠStar": 6317,
      "coming": 6318,
      "Ġdetermin": 6319,
      "Ġallowed": 6320,
      "porate": 6321,
      "ĠÃ¤ndern": 6322,
      "Ġfishing": 6323,
      "ĠMart": 6324,
      "Ġprocedures": 6325,
      "wa": 6326,
      "Ġactivity": 6327,
      "ronic": 6328,
      "Ġrich": 6329,
      "cker": 6330,
      "ĠgenieÃŁen": 6331,
      "conomic": 6332,
      "ologien": 6333,
      "falt": 6334,
      "ĠExper": 6335,
      "ĠFilm": 6336,
      "Ġtask": 6337,
      "ades": 6338,
      "Ġproduce": 6339,
      "ĠjÃ¼n": 6340,
      "Ġmedium": 6341,
      "Ġvertreten": 6342,
      "Ã¤mt": 6343,
      "Ġhous": 6344,
      "Ġinstrument": 6345,
      "ĠRights": 6346,
      "Ġfisher": 6347,
      "ugg": 6348,
      "Ġdiv": 6349,
      "etary": 6350,
      "Ġstatus": 6351,
      "ĠPrÃ¼": 6352,
      "ĠOktober": 6353,
      "angt": 6354,
      "ĠOrgan": 6355,
      "ĠAnforderungen": 6356,
      "Ġkonzentr": 6357,
      "anlage": 6358,
      "ĠSchweiz": 6359,
      "ĠPap": 6360,
      "Ġkeiner": 6361,
      "ĠToday": 6362,
      "ĠFlughafen": 6363,
      "ĠServer": 6364,
      "Ġhervorra": 6365,
      "ĠKÃ¼che": 6366,
      "ĠEm": 6367,
      "Ġoperation": 6368,
      "ĠBerichts": 6369,
      "ĠEd": 6370,
      "prises": 6371,
      "Ġaccep": 6372,
      "Ġpurs": 6373,
      "dra": 6374,
      "bor": 6375,
      "isp": 6376,
      "utter": 6377,
      "Ġlegislative": 6378,
      "ĠAbend": 6379,
      "Ġsource": 6380,
      "Ar": 6381,
      "altet": 6382,
      "Ġcompromise": 6383,
      "Ġfall": 6384,
      "ĠCap": 6385,
      "zone": 6386,
      "ĠZeich": 6387,
      "Ġmorgen": 6388,
      "Ġcontribution": 6389,
      "ĠÃĸffentlichkeit": 6390,
      "ĠtÃ¤": 6391,
      "Ġprovisions": 6392,
      "Ġdut": 6393,
      "EP": 6394,
      "Ġdamage": 6395,
      "Ġrelation": 6396,
      "overty": 6397,
      "ĠVorschriften": 6398,
      "ĠStÃ¤d": 6399,
      "Ġexact": 6400,
      "ĠDiskussion": 6401,
      "Ġmor": 6402,
      "Ġbetroffen": 6403,
      "ĠAnwend": 6404,
      "ĠKan": 6405,
      "ĠbeschÃ¤ft": 6406,
      "oder": 6407,
      "soft": 6408,
      "FR": 6409,
      "Ġdisp": 6410,
      "Mit": 6411,
      "lÃ¤nd": 6412,
      "ĠGÃ¤stebewertungen": 6413,
      "Ġsan": 6414,
      "ĠDemoc": 6415,
      "ĠStÃ¤r": 6416,
      "itude": 6417,
      "âĢľ,": 6418,
      "letzt": 6419,
      "ĠSm": 6420,
      "ibil": 6421,
      "see": 6422,
      "ĠUnternehmens": 6423,
      "24": 6424,
      "ĠBundes": 6425,
      "ĠSite": 6426,
      "Ġwritten": 6427,
      "polit": 6428,
      "enntnis": 6429,
      "ĠGrenzen": 6430,
      "Ġinstruments": 6431,
      "ĠLandwirtschaft": 6432,
      "ĠEvery": 6433,
      "ĠErzeug": 6434,
      "no": 6435,
      "ivity": 6436,
      "Ġword": 6437,
      "ĠGip": 6438,
      "ĠBereiche": 6439,
      "ĠSpanish": 6440,
      "ĠWider": 6441,
      "ĠTransparenz": 6442,
      "kosten": 6443,
      "Ġvillage": 6444,
      "ĠEle": 6445,
      "lines": 6446,
      "Ġlabour": 6447,
      "Ġforder": 6448,
      "Ġleisten": 6449,
      "Ġdise": 6450,
      "ienten": 6451,
      "Ġcompon": 6452,
      "ĠJuli": 6453,
      "Ġfehl": 6454,
      "Ġappe": 6455,
      "ĠArbeitnehmer": 6456,
      "Ġerwarten": 6457,
      "itial": 6458,
      "Ġkonnten": 6459,
      "Ġleider": 6460,
      "ĠDevelopment": 6461,
      "annen": 6462,
      "ira": 6463,
      "Ġgiving": 6464,
      "Ġliberal": 6465,
      "Ġdistance": 6466,
      "Ġeingesetzt": 6467,
      "ĠhÃ¤ufig": 6468,
      "ĠÃ¼berw": 6469,
      "Ã¼hungen": 6470,
      "ĠTagesordnung": 6471,
      "dienst": 6472,
      "Ġkit": 6473,
      "oker": 6474,
      "ĠTex": 6475,
      "Ġeigentlich": 6476,
      "ford": 6477,
      "Ġourselves": 6478,
      "ĠBilder": 6479,
      "ĠGesundheits": 6480,
      ".)": 6481,
      "ĠSystems": 6482,
      "Ġpen": 6483,
      "ĠDuring": 6484,
      "Ġgain": 6485,
      "Ġcriteria": 6486,
      "ĠEmpfehl": 6487,
      "Ġhistorical": 6488,
      "Ġstatement": 6489,
      "Ġconven": 6490,
      "Ġloss": 6491,
      "ĠPrinzip": 6492,
      "rats": 6493,
      "Ġgot": 6494,
      "ifik": 6495,
      "ĠAnsatz": 6496,
      "ĠAnfrage": 6497,
      "Ġminor": 6498,
      "ĠIst": 6499,
      "Ġregel": 6500,
      "Ġwenige": 6501,
      "Ġdocuments": 6502,
      "ĠBelg": 6503,
      "ĠPrÃ¤sidenten": 6504,
      "wesen": 6505,
      "Ġdat": 6506,
      "ĠNationen": 6507,
      "Ġklein": 6508,
      "Ġgenommen": 6509,
      "Ġgeworden": 6510,
      "Ġprefer": 6511,
      "ĠHung": 6512,
      "ĠVal": 6513,
      "Ġevalu": 6514,
      "ateral": 6515,
      "works": 6516,
      "Ġviolence": 6517,
      "ĠPortugal": 6518,
      "Ġmountain": 6519,
      "ĠEre": 6520,
      "Ġeleg": 6521,
      "Ġzentr": 6522,
      "ĠJe": 6523,
      "ĠdurchgefÃ¼hrt": 6524,
      "Ġcomprehens": 6525,
      "Ġverm": 6526,
      "Ġmem": 6527,
      "Ġwon": 6528,
      "ĠKur": 6529,
      "Ġlaunch": 6530,
      "ĠShe": 6531,
      "cret": 6532,
      "Ġfinally": 6533,
      "Ġfirm": 6534,
      "ĠMult": 6535,
      "Ġstructure": 6536,
      "freund": 6537,
      "ĠReal": 6538,
      "Ġinterpre": 6539,
      "Ġbase": 6540,
      "Ġbenefits": 6541,
      "Ġgran": 6542,
      "ĠNeu": 6543,
      "ĠInvestitionen": 6544,
      "23": 6545,
      "uche": 6546,
      "Ġtypes": 6547,
      "ground": 6548,
      "fun": 6549,
      "ĠVilla": 6550,
      "forderung": 6551,
      "Ã±": 6552,
      "ĠSommer": 6553,
      "Ġfell": 6554,
      "orgt": 6555,
      "ĠInn": 6556,
      "Ġunmittel": 6557,
      "ĠLinux": 6558,
      "80": 6559,
      "lichkeiten": 6560,
      "Ġdepart": 6561,
      "ĠCost": 6562,
      "ĠberÃ¼hm": 6563,
      "ĠJuly": 6564,
      "orgung": 6565,
      "cture": 6566,
      "ĠbenÃ¶tigen": 6567,
      "iete": 6568,
      "ograf": 6569,
      "Ġnied": 6570,
      "ĠSinne": 6571,
      "Ġbrit": 6572,
      "Ġfilm": 6573,
      "Ġpath": 6574,
      "ĠSign": 6575,
      "ierende": 6576,
      "Ġgele": 6577,
      "ĠSchwier": 6578,
      "ĠOst": 6579,
      "ĠAuftrag": 6580,
      "ĠJanuar": 6581,
      "Ġsuchen": 6582,
      "uls": 6583,
      "Ġimmediately": 6584,
      "bin": 6585,
      "ĠTa": 6586,
      "Ġsection": 6587,
      "ĠComputer": 6588,
      "Ġedit": 6589,
      "Ġbra": 6590,
      "Ġconstant": 6591,
      "ought": 6592,
      "ĠMany": 6593,
      "Office": 6594,
      "ĠGrÃ¼nden": 6595,
      "ĠCO": 6596,
      "Ġaktuellen": 6597,
      "Ġworth": 6598,
      "ST": 6599,
      "Ġwest": 6600,
      "ummer": 6601,
      "ĠhÃ¶her": 6602,
      "Ġelements": 6603,
      "Ġwine": 6604,
      "Ġhighest": 6605,
      "Ġfreund": 6606,
      "ĠUntersuch": 6607,
      "ĠAfghan": 6608,
      "ĠVerÃ¤nder": 6609,
      "Ġihres": 6610,
      "ĠeuropÃ¤ischer": 6611,
      "ĠFirma": 6612,
      "Ġdistribution": 6613,
      "Ġangesichts": 6614,
      "ĠBulgar": 6615,
      "drÃ¼cklich": 6616,
      "Ġobserv": 6617,
      "EM": 6618,
      "Ġgas": 6619,
      "ĠIraq": 6620,
      "ĠHel": 6621,
      "Ġthreat": 6622,
      "Ġtransparency": 6623,
      "Ã¶rt": 6624,
      "ĠAlthough": 6625,
      "ĠFree": 6626,
      "fordern": 6627,
      "enew": 6628,
      "Ġwichtiger": 6629,
      "!!": 6630,
      "Ġkannst": 6631,
      "Ġperfe": 6632,
      "Ġgrat": 6633,
      "wind": 6634,
      "zwe": 6635,
      "Ġ35": 6636,
      "Ġult": 6637,
      "ĠVorsitz": 6638,
      "ĠAuto": 6639,
      "cription": 6640,
      "Ġlower": 6641,
      "anted": 6642,
      "ĠMetho": 6643,
      "urance": 6644,
      "ieht": 6645,
      "Ġkennen": 6646,
      "leitet": 6647,
      "Ġemployees": 6648,
      "Ġgefunden": 6649,
      "Ġintegrated": 6650,
      "OT": 6651,
      "zeichnung": 6652,
      "Ġweder": 6653,
      "idge": 6654,
      "Ġcy": 6655,
      "Ġuseful": 6656,
      "ĠFlor": 6657,
      "house": 6658,
      "ĠbezÃ¼glich": 6659,
      "Ġequal": 6660,
      "Ġstock": 6661,
      "ĠRede": 6662,
      "teuer": 6663,
      "ĠJava": 6664,
      "Ġgre": 6665,
      "Ġdein": 6666,
      "ĠTradition": 6667,
      "ĠProjekte": 6668,
      "zusch": 6669,
      "Ġ1997": 6670,
      "Ġagenda": 6671,
      "Ġnumerous": 6672,
      "ĠNr": 6673,
      "Ġalternative": 6674,
      "ĠAuffassung": 6675,
      "Ġlate": 6676,
      "Ġgeschaffen": 6677,
      "Ġaffect": 6678,
      "ĠUniversity": 6679,
      "orning": 6680,
      "Ġreading": 6681,
      "Ġselect": 6682,
      "Ã¼cken": 6683,
      "Ġvorge": 6684,
      "ĠursprÃ¼n": 6685,
      "Ġparking": 6686,
      "Ġzeit": 6687,
      "eks": 6688,
      "ĠMeine": 6689,
      "ĠOl": 6690,
      "ĠAufenthalt": 6691,
      "aign": 6692,
      "Ġapplied": 6693,
      "ĠInnen": 6694,
      "ammlung": 6695,
      "Ġhom": 6696,
      "Ġdrive": 6697,
      "Un": 6698,
      "Ġ31": 6699,
      "--": 6700,
      "ĠGott": 6701,
      "Ġchallenges": 6702,
      "zt": 6703,
      "head": 6704,
      "Ġelections": 6705,
      "ĠSache": 6706,
      "Ġhelpful": 6707,
      "ĠDVD": 6708,
      "Ã¤ngen": 6709,
      "mosphÃ¤re": 6710,
      "ĠYour": 6711,
      "Ġhalte": 6712,
      "Ġreality": 6713,
      "Ġsonst": 6714,
      "ĠLebensmittel": 6715,
      "ĠCentre": 6716,
      "Ġmis": 6717,
      "ĠMann": 6718,
      "leb": 6719,
      "ais": 6720,
      "bezogen": 6721,
      "Ġconsist": 6722,
      "ral": 6723,
      "Ġcoast": 6724,
      "Ġemb": 6725,
      "Ġapartments": 6726,
      "ĠFurthermore": 6727,
      "ym": 6728,
      "Ã¤te": 6729,
      "Ġprocesses": 6730,
      "Ġpoverty": 6731,
      "ĠSolidar": 6732,
      "ĠMobil": 6733,
      "Ġpayment": 6734,
      "Ġround": 6735,
      "wortern": 6736,
      "ĠKoh": 6737,
      "ĠBeginn": 6738,
      "Ġtools": 6739,
      "Ġeher": 6740,
      "Ġdaily": 6741,
      "Ġski": 6742,
      "Ġemiss": 6743,
      "Ġconsequences": 6744,
      "elten": 6745,
      "front": 6746,
      "zehn": 6747,
      "ĠÃ¼brigen": 6748,
      "ĠPrÃ¤sidentschaft": 6749,
      "Ġteach": 6750,
      "achtung": 6751,
      "legation": 6752,
      "Ġunemp": 6753,
      "Ġerneut": 6754,
      "ĠÌ": 6755,
      "Ġsaying": 6756,
      "Ġoffering": 6757,
      "Ġsieht": 6758,
      "ĠRegeln": 6759,
      "phone": 6760,
      "ĠÃ¼berprÃ¼": 6761,
      "Ġbem": 6762,
      "Ġoccas": 6763,
      "ĠbegrÃ¼ÃŁe": 6764,
      "Ġcrucial": 6765,
      "Ġtim": 6766,
      "Ġdiejenigen": 6767,
      "Ġtreffen": 6768,
      "Ġsolidarity": 6769,
      "mÃ¶": 6770,
      "ĠHeute": 6771,
      "Ġbringt": 6772,
      "Ġmut": 6773,
      "Ã¼nde": 6774,
      "Ġanalysis": 6775,
      "Ġbad": 6776,
      "ĠGast": 6777,
      "Ġdrink": 6778,
      "zufÃ¼hren": 6779,
      "ĠTerm": 6780,
      "Ã¼nstler": 6781,
      "park": 6782,
      "ĠEreign": 6783,
      "UR": 6784,
      "Ġpal": 6785,
      "Ġbeyond": 6786,
      "sprozess": 6787,
      "Ġschl": 6788,
      "richten": 6789,
      "Ġentsprechenden": 6790,
      "ĠBeteil": 6791,
      "kom": 6792,
      "ĠArmut": 6793,
      "Ġperman": 6794,
      "aktion": 6795,
      "Ġlegit": 6796,
      "Ġign": 6797,
      "ĠBahn": 6798,
      "ĠStraÃŁen": 6799,
      "engen": 6800,
      "izin": 6801,
      "Ġphot": 6802,
      "ĠAre": 6803,
      "back": 6804,
      "sprÃ¼": 6805,
      "ĠÃĦnderung": 6806,
      "ogle": 6807,
      "Ġziehen": 6808,
      "Ġundert": 6809,
      "Ġpersons": 6810,
      "Ã¶ren": 6811,
      "ĠMos": 6812,
      "Ġplant": 6813,
      "Ġpaid": 6814,
      "Ã§": 6815,
      "folge": 6816,
      "Ġbeitragen": 6817,
      "Ġwissenschaft": 6818,
      "Ġkrit": 6819,
      "Ġerfahren": 6820,
      "ione": 6821,
      "ĠÃ¶ffentliche": 6822,
      "afe": 6823,
      "Ġhumanit": 6824,
      "entur": 6825,
      "Ġoffered": 6826,
      "Ġvan": 6827,
      "Ġspirit": 6828,
      "Ġconflict": 6829,
      "hesion": 6830,
      "ĠAufgaben": 6831,
      "Ġcolleagues": 6832,
      "ded": 6833,
      "rÃ¼": 6834,
      "Ġthought": 6835,
      "anging": 6836,
      "Ġinfrastru": 6837,
      "Ġgoes": 6838,
      "ola": 6839,
      "ares": 6840,
      "spricht": 6841,
      "scheinlich": 6842,
      "IA": 6843,
      "hilfe": 6844,
      "Ġhinzu": 6845,
      "ĠSchlusselwortern": 6846,
      "ĠBemÃ¼hungen": 6847,
      "ĠFÃ¤llen": 6848,
      "Ġpractical": 6849,
      "Ġentsprechend": 6850,
      "Ġillegal": 6851,
      "ĠLinie": 6852,
      "Ġlas": 6853,
      "ĠFolge": 6854,
      "Ġhappy": 6855,
      "ufe": 6856,
      "ĠVertreter": 6857,
      "ĠSpezial": 6858,
      "ĠMonaten": 6859,
      "Ġlangfrist": 6860,
      "wser": 6861,
      "gy": 6862,
      "ĠZentral": 6863,
      "ĠMediterranean": 6864,
      "losen": 6865,
      "Ġvergessen": 6866,
      "Ġsufficient": 6867,
      "ĠAgrar": 6868,
      "ĠVen": 6869,
      "ula": 6870,
      "Ġideas": 6871,
      "Ġzehn": 6872,
      "Ġkur": 6873,
      "ĠWinter": 6874,
      "vors": 6875,
      "ya": 6876,
      "ĠMer": 6877,
      "ĠTH": 6878,
      "ye": 6879,
      "ĠBedÃ¼rf": 6880,
      "leistung": 6881,
      "ĠGas": 6882,
      "schlieÃŁen": 6883,
      "Ġhil": 6884,
      "Ġrequires": 6885,
      "ĠKor": 6886,
      "ĠfrÃ¼her": 6887,
      "fo": 6888,
      "Europ": 6889,
      "othe": 6890,
      "ĠNachbar": 6891,
      "Ġhar": 6892,
      "fÃ¼hl": 6893,
      "Ġverhindern": 6894,
      "iability": 6895,
      "ĠÂ»": 6896,
      "wart": 6897,
      "Ġban": 6898,
      "ĠBa": 6899,
      "Ġkil": 6900,
      "iveau": 6901,
      "obby": 6902,
      "Ġcurren": 6903,
      "ĠKredit": 6904,
      "view": 6905,
      "Ġforces": 6906,
      "Ġexception": 6907,
      "angeb": 6908,
      "ĠRestaurants": 6909,
      "Ġausgezeich": 6910,
      "Ð»": 6911,
      "ĠBÃ¼rgern": 6912,
      "PS": 6913,
      "sych": 6914,
      "Ġgenannten": 6915,
      "vere": 6916,
      "Ã¼cht": 6917,
      "Ġgetan": 6918,
      "Ġunbe": 6919,
      "Ġweak": 6920,
      "cia": 6921,
      "ĠDritt": 6922,
      "ocol": 6923,
      "ĠSitzung": 6924,
      "based": 6925,
      "Ġorganisations": 6926,
      "ĠDirective": 6927,
      "ĠRepublik": 6928,
      "ĠWunsch": 6929,
      "ĠRessourcen": 6930,
      "strumente": 6931,
      "estic": 6932,
      "craft": 6933,
      "Ġpie": 6934,
      "heben": 6935,
      "{{": 6936,
      "Ġbehandelt": 6937,
      "ĠVerl": 6938,
      "schlag": 6939,
      "Ġspee": 6940,
      "Ġminimum": 6941,
      "ĠhÃ¤tten": 6942,
      "hold": 6943,
      "Ġweeks": 6944,
      "Ġadvantage": 6945,
      "Ġdoubt": 6946,
      "ĠVÃ¶lk": 6947,
      "Ġfrequ": 6948,
      "Ġtomor": 6949,
      "tellten": 6950,
      "cape": 6951,
      "Ġerfolgt": 6952,
      "ĠprÃ¤sent": 6953,
      "ĠTagen": 6954,
      "Ġtomorrow": 6955,
      "Ġcongratulate": 6956,
      "ĠTest": 6957,
      "98": 6958,
      "DF": 6959,
      "Ãł": 6960,
      "ĠLas": 6961,
      "Ġvorher": 6962,
      "Ġmodified": 6963,
      "ĠEven": 6964,
      "irl": 6965,
      "ifel": 6966,
      "Ġhistoric": 6967,
      "ĠjÃ¼ng": 6968,
      "Ġanderem": 6969,
      "ĠBehandlung": 6970,
      "ĠPalest": 6971,
      "Ã¶ÃŁe": 6972,
      "ĠPublic": 6973,
      "Ġwaste": 6974,
      "Ġimplemented": 6975,
      "ĠEigent": 6976,
      "Ġbeant": 6977,
      "ĠEnd": 6978,
      "Ġhear": 6979,
      "programm": 6980,
      "Ġpartnership": 6981,
      "Ġsecure": 6982,
      "Ġnimmt": 6983,
      "ordination": 6984,
      "Ġsales": 6985,
      "ĠSecurity": 6986,
      "ilosoph": 6987,
      "Ġbuy": 6988,
      "ĠVideo": 6989,
      "Ġshopping": 6990,
      "Ġclients": 6991,
      "ĠHuman": 6992,
      "ibe": 6993,
      "Ġrelating": 6994,
      "Ġlines": 6995,
      "Ġrenew": 6996,
      "ischem": 6997,
      "Ã¼ge": 6998,
      "Ġreference": 6999,
      "gewiesen": 7000,
      "Ã¼rger": 7001,
      "Ġstarting": 7002,
      "esellschaften": 7003,
      "aint": 7004,
      "Ġpublished": 7005,
      "Ġbedroom": 7006,
      "Ġmonitoring": 7007,
      "ĠMicrosoft": 7008,
      "Ġreich": 7009,
      "Ġversucht": 7010,
      "SS": 7011,
      "Ġol": 7012,
      "Ġsyn": 7013,
      "Ġrestr": 7014,
      "Ġpaar": 7015,
      "Ġmorning": 7016,
      "ĠAnstr": 7017,
      "Ġbesondere": 7018,
      "ĠMilliar": 7019,
      "ĠGrand": 7020,
      "Ã¤nge": 7021,
      "vis": 7022,
      "Ġlives": 7023,
      "wÃ¼n": 7024,
      "Ġgrowing": 7025,
      "ĠGerichts": 7026,
      "Ġcomprehensive": 7027,
      "Ġcaused": 7028,
      "ĠMc": 7029,
      "II": 7030,
      "Ġmaximum": 7031,
      "ĠAustria": 7032,
      "ĠStock": 7033,
      "Ġreduction": 7034,
      "ĠInhalt": 7035,
      "Ġuner": 7036,
      "Ġefficiency": 7037,
      "ĠAmendment": 7038,
      "ĠVergangen": 7039,
      "Ġoperating": 7040,
      "ĠKn": 7041,
      "ĠHal": 7042,
      "ĠBÃ¼rgerinnen": 7043,
      "icken": 7044,
      "ĠWerte": 7045,
      "Ġcircum": 7046,
      "ĠGest": 7047,
      "Ġjen": 7048,
      "Ġwr": 7049,
      "pective": 7050,
      "Ġausreich": 7051,
      "Ġanti": 7052,
      "Ġusw": 7053,
      "frastruktur": 7054,
      "ĠAk": 7055,
      "Ġfordern": 7056,
      "schreit": 7057,
      "Ġready": 7058,
      "ĠMass": 7059,
      "ĠAtmosphÃ¤re": 7060,
      "ĠBetrieb": 7061,
      "Ġmachine": 7062,
      "ĠGebÃ¤ude": 7063,
      "theless": 7064,
      "ĠBot": 7065,
      "):": 7066,
      "Ġaccordance": 7067,
      "Ġsechs": 7068,
      "ungsver": 7069,
      "Ġmeaning": 7070,
      "ĠErfahrungen": 7071,
      "hafte": 7072,
      "zielle": 7073,
      "ret": 7074,
      "Ġful": 7075,
      "nungen": 7076,
      "ĠCop": 7077,
      "ĠForschungs": 7078,
      "Ġcampaign": 7079,
      "ĠmÃ¼": 7080,
      "Ġrecon": 7081,
      "ategie": 7082,
      "Å¡": 7083,
      "ĠAller": 7084,
      "schÃ¶": 7085,
      "ĠFinanzierung": 7086,
      "Ġserver": 7087,
      "Die": 7088,
      "Ġmitt": 7089,
      "Ġoptions": 7090,
      "We": 7091,
      "ĠNacht": 7092,
      "ĠÃ¼berhaupt": 7093,
      "gruppe": 7094,
      "ĠNatÃ¼rlich": 7095,
      "Ġ194": 7096,
      "Ġgewesen": 7097,
      "Ġsports": 7098,
      "oon": 7099,
      "Ġunbed": 7100,
      "ĠGreen": 7101,
      "ĠMinder": 7102,
      "ius": 7103,
      "ĠWhile": 7104,
      "Ġinitial": 7105,
      "03": 7106,
      "ĠgÃ¼nst": 7107,
      "ulated": 7108,
      "bas": 7109,
      "Ġstreet": 7110,
      "altungen": 7111,
      "ĠerfÃ¼llen": 7112,
      "Ġanything": 7113,
      "ĠGef": 7114,
      "ĠPet": 7115,
      "Ã´": 7116,
      "Ġded": 7117,
      "ichert": 7118,
      "pool": 7119,
      "ado": 7120,
      "ĠerklÃ¤rt": 7121,
      "stitutional": 7122,
      "standing": 7123,
      "Ġfolgen": 7124,
      "Ġsal": 7125,
      "ĠDav": 7126,
      "Ġwarum": 7127,
      "Ġsometimes": 7128,
      "Ġurg": 7129,
      "Ġzahlreichen": 7130,
      "ĠIniti": 7131,
      "ĠEss": 7132,
      "ĠAltern": 7133,
      "ĠberÃ¼cksichtigt": 7134,
      "Ġbegin": 7135,
      "book": 7136,
      "ĠErd": 7137,
      "LA": 7138,
      "itation": 7139,
      "ĠDel": 7140,
      "Ġrapid": 7141,
      "ĠProtokoll": 7142,
      "ĠTechnologie": 7143,
      "Ġtechnologies": 7144,
      "itch": 7145,
      "pack": 7146,
      "Ġborder": 7147,
      "ĠBu": 7148,
      "ĠgrÃ¶ÃŁer": 7149,
      "Ġcritic": 7150,
      "Ġplayers": 7151,
      "Ġmensch": 7152,
      "alyse": 7153,
      "atform": 7154,
      "ĠId": 7155,
      "lim": 7156,
      "Ġoffiz": 7157,
      "ÂŃ": 7158,
      "Ġpictures": 7159,
      "Ġadvert": 7160,
      "Ġextent": 7161,
      "Ġcharm": 7162,
      "Ġbetreff": 7163,
      "Ġgerecht": 7164,
      "ĠVerteid": 7165,
      "ĠCenter": 7166,
      "ĠsÃ¤mt": 7167,
      "Ġprobably": 7168,
      "zy": 7169,
      "ĠHy": 7170,
      "ĠPraxis": 7171,
      "ĠLassen": 7172,
      "Ġbegan": 7173,
      "Ġchance": 7174,
      "Ġlanguages": 7175,
      "Ġones": 7176,
      "ĠÌģ": 7177,
      "izienz": 7178,
      "Ġswimming": 7179,
      "ĠGel": 7180,
      "Ġterrorism": 7181,
      "Ġremov": 7182,
      "Ġexport": 7183,
      "flÃ¤che": 7184,
      "}}": 7185,
      "ĠConference": 7186,
      "ĠAspekte": 7187,
      "Ġworldwide": 7188,
      "ĠVergangenheit": 7189,
      "Ġfarmers": 7190,
      "Ġstimmen": 7191,
      "Ġrichtige": 7192,
      "Ġstaat": 7193,
      "Ġbur": 7194,
      "mus": 7195,
      "Ġwelches": 7196,
      "Ġeingeb": 7197,
      "Ġsav": 7198,
      "utive": 7199,
      "ichern": 7200,
      "ĠTerrorismus": 7201,
      "Ġcounter": 7202,
      "board": 7203,
      "Ġdecor": 7204,
      "Ġmethods": 7205,
      "ĠHerz": 7206,
      "ĠBeruf": 7207,
      "ĠMenschenrechts": 7208,
      "ĠDat": 7209,
      "ĠAirport": 7210,
      "ĠFÃ¤h": 7211,
      "Ġjeweiligen": 7212,
      "ĠMand": 7213,
      "ĠJohn": 7214,
      "',": 7215,
      "Ġinterested": 7216,
      "legten": 7217,
      "Ġvoting": 7218,
      "ĠgrÃ¶ÃŁte": 7219,
      "Ã¤llt": 7220,
      "Ġchallenge": 7221,
      "ifically": 7222,
      "ĠSpanien": 7223,
      "Ġverpflichtet": 7224,
      "sc": 7225,
      "Ġemail": 7226,
      "Ġtransparent": 7227,
      "Ġlands": 7228,
      "Ġsectors": 7229,
      "oke": 7230,
      "grenz": 7231,
      "Ġrespond": 7232,
      "itten": 7233,
      "iding": 7234,
      "ĠHoff": 7235,
      "Ġeinheit": 7236,
      "ĠTor": 7237,
      "Ġstets": 7238,
      "ĠDoppel": 7239,
      "ĠStart": 7240,
      "Ġtourist": 7241,
      "Ġcast": 7242,
      "Ġadopt": 7243,
      "izes": 7244,
      "izing": 7245,
      "Ġmotor": 7246,
      "CO": 7247,
      "Ġscientific": 7248,
      "Ġseines": 7249,
      "ĠAc": 7250,
      "Ġhistorischen": 7251,
      "ĠZweitens": 7252,
      "Ġsymbol": 7253,
      "Ġwanted": 7254,
      "ĠRats": 7255,
      "Ġbill": 7256,
      "ĠBal": 7257,
      "ĠVergleich": 7258,
      "zeiten": 7259,
      "ĠGran": 7260,
      "Ġarrange": 7261,
      "Ġles": 7262,
      "Ġehem": 7263,
      "Ġreflect": 7264,
      "IV": 7265,
      "ĠPH": 7266,
      "ĠwÃ¤hlen": 7267,
      "ĠEst": 7268,
      "ĠWaren": 7269,
      "reland": 7270,
      "Ġcandid": 7271,
      "ktive": 7272,
      "Ġ1996": 7273,
      "vollen": 7274,
      "Ġbald": 7275,
      "Ġvalid": 7276,
      "Ġcert": 7277,
      "igation": 7278,
      "ĠLang": 7279,
      "karte": 7280,
      "Ġwach": 7281,
      "Ġgames": 7282,
      "ĠOpfer": 7283,
      "ĠGene": 7284,
      "sam": 7285,
      "ĠauÃŁerhalb": 7286,
      "ĠViele": 7287,
      "Ġrelease": 7288,
      "enze": 7289,
      "Ġaccepted": 7290,
      "ĠSchritte": 7291,
      "Ġselection": 7292,
      "nungs": 7293,
      "ĠbetrÃ¤": 7294,
      "rÃ¤nkt": 7295,
      "Ġbusinesses": 7296,
      "Ġrele": 7297,
      "Ġexerc": 7298,
      "Ġapprec": 7299,
      "ĠFrankf": 7300,
      "ichtlich": 7301,
      "ĠbefÃ¼r": 7302,
      "Ġmodernen": 7303,
      "abkommen": 7304,
      "enh": 7305,
      "ĠEas": 7306,
      "figur": 7307,
      "Ġzumindest": 7308,
      "Ġverantwortlich": 7309,
      "ĠBerat": 7310,
      "fence": 7311,
      "wel": 7312,
      "meer": 7313,
      "ĠZivil": 7314,
      "SP": 7315,
      "poses": 7316,
      "losigkeit": 7317,
      "Ġdespite": 7318,
      "Ġpowers": 7319,
      "ĠHil": 7320,
      "ĠRechtsvorschriften": 7321,
      "Ġgemein": 7322,
      "ĠFirmen": 7323,
      "ĠChinese": 7324,
      "ĠTem": 7325,
      "âĢĿ.": 7326,
      "Ġblo": 7327,
      "Ġupd": 7328,
      "tempt": 7329,
      "Ġkam": 7330,
      "ĠSM": 7331,
      "Ġfolgt": 7332,
      "Ġfine": 7333,
      "iell": 7334,
      "ĠGoogle": 7335,
      "ĠVertrauen": 7336,
      "ĠtÃ¤t": 7337,
      "verage": 7338,
      "iant": 7339,
      "Ġlay": 7340,
      "Ġwalking": 7341,
      "ĠIreland": 7342,
      "ĠGarten": 7343,
      "ĠSpieler": 7344,
      "Ġinfluence": 7345,
      "Ġvisitors": 7346,
      "Ġlies": 7347,
      "ĠAngelegenheit": 7348,
      "ĠvollstÃ¤ndig": 7349,
      "zul": 7350,
      "Ġverab": 7351,
      "ĠNAT": 7352,
      "Ġexpert": 7353,
      "Ġheutigen": 7354,
      "Ġverkauf": 7355,
      "Ġgenu": 7356,
      "Ġgenug": 7357,
      "Ġimages": 7358,
      "ĠschÃ¼tzen": 7359,
      "Ġremember": 7360,
      "Ã¤mpfen": 7361,
      "hilfen": 7362,
      "ĠâĢĶ": 7363,
      "Ġenorm": 7364,
      "Ġtrying": 7365,
      "Ġraised": 7366,
      "Ġglo": 7367,
      "atalog": 7368,
      "Ġlost": 7369,
      "ĠChance": 7370,
      "ĠpersÃ¶nlichen": 7371,
      "Ġseparate": 7372,
      "ĠGre": 7373,
      "Ġcoup": 7374,
      "Ġcompetit": 7375,
      "ĠDazu": 7376,
      "ĠSwiss": 7377,
      "ĠAngelegenheiten": 7378,
      "kÃ¼nft": 7379,
      "Ġabsolutely": 7380,
      "Ġfant": 7381,
      "ĠSchwierigkeiten": 7382,
      "erkennung": 7383,
      "ĠHerausforderungen": 7384,
      "raten": 7385,
      "ĠDann": 7386,
      "Ġris": 7387,
      "urb": 7388,
      "ĠÂ«": 7389,
      "affe": 7390,
      "ĠParteien": 7391,
      "barer": 7392,
      "lose": 7393,
      "Ġelegant": 7394,
      "ĠstÃ¤rker": 7395,
      "akte": 7396,
      "Pr": 7397,
      "anda": 7398,
      "omb": 7399,
      "Ġkomp": 7400,
      "hers": 7401,
      "Ġtechnischen": 7402,
      "Ġsubstant": 7403,
      "ĠBerichterstatterin": 7404,
      "ids": 7405,
      "konom": 7406,
      "ĠDownload": 7407,
      "ĠTier": 7408,
      "ĠSen": 7409,
      "Ġheav": 7410,
      "Ġfolgenden": 7411,
      "Ġerlaubt": 7412,
      "ĠEinwander": 7413,
      "ĠRegierungs": 7414,
      "ĠprÃ¼": 7415,
      "Ġanders": 7416,
      "Ġerinnern": 7417,
      "imed": 7418,
      "ĠausschlieÃŁlich": 7419,
      "werte": 7420,
      "ĠMess": 7421,
      "ĠDrit": 7422,
      "Ġcrimin": 7423,
      "Ġbessere": 7424,
      "ĠAllerdings": 7425,
      "Ġdemands": 7426,
      "ĠAC": 7427,
      "quem": 7428,
      "how": 7429,
      "ĠNun": 7430,
      "Ġdeutschen": 7431,
      "ĠAnnahme": 7432,
      "ev": 7433,
      "ĠUK": 7434,
      "hÃ¤ltnis": 7435,
      "handel": 7436,
      "ĠOrd": 7437,
      "gesetz": 7438,
      "icket": 7439,
      "ĠVoll": 7440,
      "Ġinsp": 7441,
      "zusetzen": 7442,
      "Ġborders": 7443,
      "ĠPlay": 7444,
      "ĠHinsicht": 7445,
      "hotel": 7446,
      "anc": 7447,
      "ĠPrem": 7448,
      "Ġsil": 7449,
      "Ġspezif": 7450,
      "Ġclub": 7451,
      "Ġunten": 7452,
      "ĠLandwir": 7453,
      "Ġaffe": 7454,
      "ga": 7455,
      "Ġangemessen": 7456,
      "ĠSam": 7457,
      "Ġhonour": 7458,
      "Ġnamely": 7459,
      "Ġfields": 7460,
      "chtet": 7461,
      "bit": 7462,
      "ĠFlex": 7463,
      "Ġerwartet": 7464,
      "tere": 7465,
      "97": 7466,
      "Ġ).": 7467,
      "Ġslow": 7468,
      "Ġmanufactur": 7469,
      "Ġ195": 7470,
      "ĠSecondly": 7471,
      "Ġinnovation": 7472,
      "ĠMoreover": 7473,
      "Ġlisten": 7474,
      "ĠProzent": 7475,
      "rieb": 7476,
      "Ġzweit": 7477,
      "Ġanerk": 7478,
      "mel": 7479,
      "amin": 7480,
      "ION": 7481,
      "Ġgek": 7482,
      "sÃ¤tze": 7483,
      "gehend": 7484,
      "Ġvital": 7485,
      "Ġchanged": 7486,
      "attle": 7487,
      "Ġstrategic": 7488,
      "Ġeffiz": 7489,
      "ĠIhres": 7490,
      "last": 7491,
      "ĠFalls": 7492,
      "Ġgetroffen": 7493,
      "gÃ¼lt": 7494,
      "enk": 7495,
      "ĠEinrichtung": 7496,
      "ĠIslam": 7497,
      "ĠEinige": 7498,
      "Ġverurs": 7499,
      "zulegen": 7500,
      "abr": 7501,
      "lemente": 7502,
      "Ġoverall": 7503,
      "ĠjÃ¤hr": 7504,
      "ruption": 7505,
      "Ġtrip": 7506,
      "ĠSonder": 7507,
      "ĠGold": 7508,
      "krise": 7509,
      "ĠÃ¼bernehmen": 7510,
      "ĠModell": 7511,
      "Ġmenu": 7512,
      "Ġannual": 7513,
      "Ġallgemeinen": 7514,
      "Ġkitchen": 7515,
      "Ġfire": 7516,
      "ĠSoll": 7517,
      "Ġitalien": 7518,
      "Ġcalls": 7519,
      "ĠCy": 7520,
      "ĠLiberal": 7521,
      "Ġrepresentatives": 7522,
      "ĠSupp": 7523,
      "ĠzukÃ¼nft": 7524,
      "tert": 7525,
      "ĠStellen": 7526,
      "ĠPla": 7527,
      "ĠRussian": 7528,
      "indungen": 7529,
      "Ġproceed": 7530,
      "ĠKapital": 7531,
      "ighted": 7532,
      "star": 7533,
      "bezieh": 7534,
      "Ġseason": 7535,
      "Ġgesetz": 7536,
      "Ã¤tzlich": 7537,
      "ĠProduktions": 7538,
      "engungen": 7539,
      "rogen": 7540,
      "Ġjun": 7541,
      "ĠGeneration": 7542,
      "Ġworked": 7543,
      "ĠPrÃ¤": 7544,
      "Ġinitiatives": 7545,
      "Ġgesehen": 7546,
      "iertel": 7547,
      "Ġyourself": 7548,
      "ollar": 7549,
      "aters": 7550,
      "Ġprivaten": 7551,
      "bum": 7552,
      "ziert": 7553,
      "Hotel": 7554,
      "ielt": 7555,
      "Ġwiederhol": 7556,
      "ĠAgre": 7557,
      "EG": 7558,
      "Ġsimpl": 7559,
      "ĠOnly": 7560,
      "Ġprocessing": 7561,
      "ĠArbeitsplÃ¤tze": 7562,
      "Ġwrong": 7563,
      "sprechen": 7564,
      "Ġplayer": 7565,
      "ĠÃĸsterreich": 7566,
      "gruppen": 7567,
      "Ġintended": 7568,
      "aries": 7569,
      "used": 7570,
      "Ġbitten": 7571,
      "vorsitz": 7572,
      "ĠAfghanistan": 7573,
      "Ġnegative": 7574,
      "ĠSolidaritÃ¤t": 7575,
      "Ġheard": 7576,
      "ĠbegrÃ¼ÃŁen": 7577,
      "Ġexpressed": 7578,
      "mand": 7579,
      "immern": 7580,
      "ulations": 7581,
      "Ġoffens": 7582,
      "Ġevening": 7583,
      "isely": 7584,
      "22": 7585,
      "ĠGeorg": 7586,
      "Ġbeginnen": 7587,
      "Ġdarstellt": 7588,
      "ĠTal": 7589,
      "wan": 7590,
      "Ġtrack": 7591,
      "Ġehemal": 7592,
      "ita": 7593,
      "Ġvertra": 7594,
      "ĠVerwaltung": 7595,
      "Ġcas": 7596,
      "lymp": 7597,
      "Ġsetzt": 7598,
      "ĠAng": 7599,
      "Ġangeboten": 7600,
      "Ġzudem": 7601,
      "Ġaccession": 7602,
      "wes": 7603,
      "ĠAnges": 7604,
      "ĠVerfassung": 7605,
      "inens": 7606,
      "Ġplans": 7607,
      "di": 7608,
      "Ġaward": 7609,
      "ĠMitte": 7610,
      "eignet": 7611,
      "Ġoccup": 7612,
      "Ã¶rdert": 7613,
      "ĠSÃ¼": 7614,
      "Ġbanks": 7615,
      "ĠIts": 7616,
      "//": 7617,
      "ĠNews": 7618,
      "ĠnatÃ¼r": 7619,
      "Ġendlich": 7620,
      "Ġcommitted": 7621,
      "Ġautomatisch": 7622,
      "Ġbestimmt": 7623,
      "sicherheit": 7624,
      "Ġcell": 7625,
      "itts": 7626,
      "QL": 7627,
      "Ġability": 7628,
      "Ġbir": 7629,
      "ĠMÃ¼n": 7630,
      "Ġcities": 7631,
      "Ġangene": 7632,
      "iÃ³n": 7633,
      "uses": 7634,
      "Ġflexible": 7635,
      "IF": 7636,
      "ildet": 7637,
      "ĠObwohl": 7638,
      "umin": 7639,
      "hood": 7640,
      "Ġeindeutig": 7641,
      "Ġfalls": 7642,
      "bringen": 7643,
      "ĠErstens": 7644,
      "ĠlÃ¤nd": 7645,
      "ĠMilliarden": 7646,
      "stoffe": 7647,
      "Ġdipl": 7648,
      "ĠTrotz": 7649,
      "nel": 7650,
      "ĠKonzept": 7651,
      "ystemen": 7652,
      "ĠAntrag": 7653,
      "Ġtarget": 7654,
      "Ġtraffic": 7655,
      "ĠNATO": 7656,
      "iente": 7657,
      "Ġtalking": 7658,
      "Ġlove": 7659,
      "ĠGlaub": 7660,
      "zeichen": 7661,
      "Ġrestrict": 7662,
      "ĠEinfluss": 7663,
      "auern": 7664,
      "Ġletzte": 7665,
      "ĠEind": 7666,
      "ruit": 7667,
      "ĠAusgang": 7668,
      "imat": 7669,
      "ifizierung": 7670,
      "Ġentgegen": 7671,
      "Ġgoal": 7672,
      "ĠWo": 7673,
      "ĠWissenschaft": 7674,
      "Ġfresh": 7675,
      "Ġdatab": 7676,
      "Ġdeine": 7677,
      "ĠHause": 7678,
      "Ġphoto": 7679,
      "ories": 7680,
      "ĠSlo": 7681,
      "Ġplaced": 7682,
      "ils": 7683,
      "ĠPeople": 7684,
      "Ġtal": 7685,
      "Ġconcentr": 7686,
      "set": 7687,
      "Ġsinn": 7688,
      "cluded": 7689,
      "Ġrom": 7690,
      "Ġalone": 7691,
      "ustausch": 7692,
      "ĠGod": 7693,
      "ras": 7694,
      "ĠFreiz": 7695,
      "Ġrunning": 7696,
      "gere": 7697,
      "ĠHostels": 7698,
      "kaufs": 7699,
      "Ġhot": 7700,
      "Ġ150": 7701,
      "Ġdringend": 7702,
      "Ġmainly": 7703,
      "Ġspect": 7704,
      "ĠKrank": 7705,
      "Ġjem": 7706,
      "ĠbemÃ¼": 7707,
      "ĠFalle": 7708,
      "Ġbeide": 7709,
      "ĠLeute": 7710,
      "Ġautom": 7711,
      "Ġfamilies": 7712,
      "Ġelement": 7713,
      "idelines": 7714,
      "AG": 7715,
      "ĠlÃ¤nger": 7716,
      "Ġbrand": 7717,
      "fÃ¼r": 7718,
      "Ġplanning": 7719,
      "Ġterrace": 7720,
      "Ġcohesion": 7721,
      "ĠBur": 7722,
      "Ġfear": 7723,
      "ĠAcht": 7724,
      "ĠMex": 7725,
      "Ġimproved": 7726,
      "Al": 7727,
      "acc": 7728,
      "reise": 7729,
      "Ġbege": 7730,
      "agraph": 7731,
      "Ġverme": 7732,
      "grams": 7733,
      "Ġopening": 7734,
      "ples": 7735,
      "ĠErk": 7736,
      "Ġtit": 7737,
      "Ġremind": 7738,
      "gebiet": 7739,
      "ĠZustimmung": 7740,
      "ĠVerpflichtungen": 7741,
      "itzt": 7742,
      "Ġethn": 7743,
      "ĠSchwer": 7744,
      "Ġjustice": 7745,
      "Ġapproved": 7746,
      "Ġanc": 7747,
      "ĠDub": 7748,
      "ĠAnstrengungen": 7749,
      "ores": 7750,
      "Ġkaum": 7751,
      "uly": 7752,
      "Ġdan": 7753,
      "ĠTÃ¤tigkeit": 7754,
      "Ġconfirm": 7755,
      "ĠVerhalten": 7756,
      "ibly": 7757,
      "ĠgrÃ¶ÃŁere": 7758,
      "70": 7759,
      "Ġfas": 7760,
      "Ġreforms": 7761,
      "Ġreag": 7762,
      "ĠKompromiss": 7763,
      "ĠAmb": 7764,
      "ĠAusschuÃŁ": 7765,
      "ĠGrie": 7766,
      "Ġstudents": 7767,
      "Ġincreasingly": 7768,
      "Le": 7769,
      "Ġwhom": 7770,
      "Ġbenutzt": 7771,
      "Ġconclusion": 7772,
      "Ġcomments": 7773,
      "Ġcurrency": 7774,
      "Ġattempt": 7775,
      "Ġhol": 7776,
      "Ġaffected": 7777,
      "Ġfeature": 7778,
      "Ġgenannt": 7779,
      "ĠSon": 7780,
      "ĠBade": 7781,
      "tritt": 7782,
      "Ġdecide": 7783,
      "Ġirgend": 7784,
      "Ã¼ckt": 7785,
      "bourg": 7786,
      "Ðº": 7787,
      "hrte": 7788,
      "ĠGesamt": 7789,
      "ĠRoma": 7790,
      "hy": 7791,
      "ĠOrganisationen": 7792,
      "Ġadministrative": 7793,
      "Ġumfang": 7794,
      "itory": 7795,
      "Ġcircumstances": 7796,
      "Ġgenutzt": 7797,
      "ĠAnerkennung": 7798,
      "Ġlaws": 7799,
      "zeigen": 7800,
      "quate": 7801,
      "Ġbilden": 7802,
      "Ġkomfort": 7803,
      "angs": 7804,
      "gers": 7805,
      "Ġsuitable": 7806,
      "ĠNachfol": 7807,
      "pliz": 7808,
      "las": 7809,
      "bÃ¼": 7810,
      "ĠzusÃ¤tzliche": 7811,
      "Ġcollection": 7812,
      "etten": 7813,
      "ifying": 7814,
      "Ġregime": 7815,
      "glied": 7816,
      "ĠNations": 7817,
      "Ġdiscrimin": 7818,
      "Ġinn": 7819,
      "Ġprovision": 7820,
      "Ġbezahl": 7821,
      "Ġemissions": 7822,
      "ĠCr": 7823,
      "Ġunbedingt": 7824,
      "Ġtouch": 7825,
      "ĠQualitÃ¤ts": 7826,
      "Ġautomatically": 7827,
      "ĠKauf": 7828,
      "aschine": 7829,
      "Ġreduced": 7830,
      "ĠBi": 7831,
      "Ġeingehen": 7832,
      "Ġcele": 7833,
      "ĠBon": 7834,
      "ses": 7835,
      "Ġbelieb": 7836,
      "Ã¤ndigen": 7837,
      "ĠÃľberwach": 7838,
      "Ġpo": 7839,
      "Ġbox": 7840,
      "ĠAL": 7841,
      "ĠIdee": 7842,
      "Ġmoderne": 7843,
      "Ġphone": 7844,
      "Ġdelivery": 7845,
      "Ġentspricht": 7846,
      "ĠÃ¼berzeugt": 7847,
      "Ġpriorities": 7848,
      "wenden": 7849,
      "ĠCosta": 7850,
      "**": 7851,
      "Ġmill": 7852,
      "ĠDre": 7853,
      "Ġoben": 7854,
      "ray": 7855,
      "ĠEt": 7856,
      "enty": 7857,
      "Ġentstehen": 7858,
      "endence": 7859,
      "ĠImmobil": 7860,
      "Ġfeed": 7861,
      "Ġvorgelegt": 7862,
      "ĠselbstverstÃ¤ndlich": 7863,
      "Ġentschieden": 7864,
      "Ġcontribute": 7865,
      "Ġconfidence": 7866,
      "Ġerkennen": 7867,
      "Ġgesetzt": 7868,
      "âĢľ.": 7869,
      "TV": 7870,
      "Ġadministration": 7871,
      "ĠÃĸl": 7872,
      "Ġgegr": 7873,
      "Ġunemployment": 7874,
      "lichung": 7875,
      "Ġsupports": 7876,
      "Ġintell": 7877,
      "ĠEntschlieÃŁungsant": 7878,
      "Ġstabil": 7879,
      "ĠCre": 7880,
      "ago": 7881,
      "Ġstructural": 7882,
      "brit": 7883,
      "ĠkÃ¼rz": 7884,
      "Ġcos": 7885,
      "ĠWahlen": 7886,
      "Ġextend": 7887,
      "Ġextensive": 7888,
      "Ġgere": 7889,
      "Ġ1990": 7890,
      "igran": 7891,
      "laufen": 7892,
      "Ġ45": 7893,
      "ĠBesonder": 7894,
      "Ġsays": 7895,
      "ĠHolz": 7896,
      "reiber": 7897,
      "Ġersch": 7898,
      "Ġinfrastructure": 7899,
      "Ġensuring": 7900,
      "Ġunterb": 7901,
      "bad": 7902,
      "ĠDurchfÃ¼hrung": 7903,
      "alled": 7904,
      "Ġ\"...": 7905,
      "âĢĿ,": 7906,
      "struktur": 7907,
      "ĠLicht": 7908,
      "zech": 7909,
      "Ġelektron": 7910,
      "Ġcoordin": 7911,
      "Ġzufrieden": 7912,
      "ĠmilitÃ¤r": 7913,
      "ĠberÃ¼cksichtigen": 7914,
      "iano": 7915,
      "verlÃ¤ss": 7916,
      "ĠWann": 7917,
      "ĠElekt": 7918,
      "ĠHis": 7919,
      "ĠHaft": 7920,
      "Ġparticipation": 7921,
      "Ġunterschiedlichen": 7922,
      "Ġed": 7923,
      "Ġrise": 7924,
      "Ġauszu": 7925,
      "Ãľ": 7926,
      "Ġce": 7927,
      "ĠEv": 7928,
      "Ġwesentlich": 7929,
      "ael": 7930,
      "Ġvorsch": 7931,
      "fÃ¤lle": 7932,
      "ĠBoden": 7933,
      "artigen": 7934,
      "Ġangegeben": 7935,
      "://": 7936,
      "Ġscope": 7937,
      "ĠVereinbarung": 7938,
      "Ġencourage": 7939,
      "ĠIP": 7940,
      "ĠBran": 7941,
      "Ġpowerful": 7942,
      "Ch": 7943,
      "Ġvictims": 7944,
      "ĠAutom": 7945,
      "Ġanz": 7946,
      "ING": 7947,
      "aming": 7948,
      "izenz": 7949,
      "Ġspecifically": 7950,
      "Ġmanner": 7951,
      "ĠKriterien": 7952,
      "Ã¤stinens": 7953,
      "Ġmedic": 7954,
      "ĠKÃ¶rper": 7955,
      "Ġoccur": 7956,
      "Ġplayed": 7957,
      "entwicklung": 7958,
      "iums": 7959,
      "Ġmid": 7960,
      "Ġherz": 7961,
      "ĠRa": 7962,
      "Ġ;": 7963,
      "Ġcrime": 7964,
      "ongs": 7965,
      "ĠSing": 7966,
      "Ġspeziell": 7967,
      "ĠNah": 7968,
      "Ġvoraus": 7969,
      "ĠAlp": 7970,
      "ĠOsten": 7971,
      "ĠSea": 7972,
      "haften": 7973,
      "Ġfellow": 7974,
      "ĠAusbildung": 7975,
      "Ġaktuelle": 7976,
      "ĠGarant": 7977,
      "aria": 7978,
      "ĠBestand": 7979,
      "lying": 7980,
      "ĠIndeed": 7981,
      "elte": 7982,
      "Ġgezeigt": 7983,
      "omet": 7984,
      "Ġelectronic": 7985,
      "daten": 7986,
      "fu": 7987,
      "ampag": 7988,
      "Ġmindestens": 7989,
      "ĠAN": 7990,
      "zentrum": 7991,
      "Ġbewusst": 7992,
      "Ã¼ndung": 7993,
      "my": 7994,
      "benen": 7995,
      "ĠWaffen": 7996,
      "Ġmehreren": 7997,
      "ĠKommunikation": 7998,
      "iler": 7999,
      "Ġtabled": 8000,
      "90": 8001,
      "ĠSpr": 8002,
      "Ġpurposes": 8003,
      "ĠAny": 8004,
      "azz": 8005,
      "ĠAnspruch": 8006,
      "Ã¡n": 8007,
      "het": 8008,
      "ĠErn": 8009,
      "Ġherunter": 8010,
      "ĠWik": 8011,
      "ologischen": 8012,
      "ĠArchite": 8013,
      "mon": 8014,
      "gewÃ¶hn": 8015,
      "inian": 8016,
      "Ġplus": 8017,
      "Ġintroduced": 8018,
      "ĠverfÃ¼gbar": 8019,
      "ĠLab": 8020,
      "esearch": 8021,
      "96": 8022,
      "Ñĥ": 8023,
      "Ġagriculture": 8024,
      "Ġdemokratischen": 8025,
      "Ġhochwert": 8026,
      "endet": 8027,
      "ĠMitteilung": 8028,
      "Ġdanke": 8029,
      "Ġblack": 8030,
      "Ã¤den": 8031,
      "Ġerreich": 8032,
      "Ġnachdem": 8033,
      "ĠAbschluss": 8034,
      "Ġchurch": 8035,
      "Ġhund": 8036,
      "afft": 8037,
      "odies": 8038,
      "Ġquant": 8039,
      "wirken": 8040,
      "rel": 8041,
      "laus": 8042,
      "ĠAgenda": 8043,
      "Ġrepla": 8044,
      "ĠAnn": 8045,
      "arus": 8046,
      "Ġentsprechende": 8047,
      "Ġhinweisen": 8048,
      "Ġeffectively": 8049,
      "orea": 8050,
      "Ġgetting": 8051,
      "ĠIdent": 8052,
      "fiz": 8053,
      "anlagen": 8054,
      "Ġlarger": 8055,
      "Ġwonderful": 8056,
      "ham": 8057,
      "ĠVorteile": 8058,
      "ĠAgreement": 8059,
      "ĠEach": 8060,
      "Ġsources": 8061,
      "time": 8062,
      "ĠBemerk": 8063,
      "ĠIM": 8064,
      "ĠRegional": 8065,
      "Ġdetailed": 8066,
      "ĠAnder": 8067,
      "Ġanimals": 8068,
      "aktiv": 8069,
      "ĠnÃ¶t": 8070,
      "Ġscreen": 8071,
      "Ġharm": 8072,
      "Ġserved": 8073,
      "Ġglauben": 8074,
      "ĠPartei": 8075,
      "ĠLiber": 8076,
      "Ġship": 8077,
      "Ġplatform": 8078,
      "Ġaimed": 8079,
      "gerungen": 8080,
      "ĠStabilitÃ¤t": 8081,
      "Ġusually": 8082,
      "zeichnen": 8083,
      "Ġfert": 8084,
      "Ġreferred": 8085,
      "Ġcompetitive": 8086,
      "ĠBesucher": 8087,
      "rans": 8088,
      "Ġbeschlossen": 8089,
      "ĠOlymp": 8090,
      "letter": 8091,
      "ĠEnterprise": 8092,
      "CD": 8093,
      "ĠSchaden": 8094,
      "ĠZwischen": 8095,
      "Ġfunctions": 8096,
      "amber": 8097,
      "ickets": 8098,
      "IG": 8099,
      "iat": 8100,
      "Ġec": 8101,
      "ĠWÃ¤hrung": 8102,
      "ĠSand": 8103,
      "Ġclient": 8104,
      "Ġnationale": 8105,
      "ĠerwÃ¤hnt": 8106,
      "Ġsummit": 8107,
      "idents": 8108,
      "Ġgesprochen": 8109,
      "ĠMost": 8110,
      "ĠGlÃ¼ck": 8111,
      "ĠHintergrund": 8112,
      "ĠPolicy": 8113,
      "Ġeuch": 8114,
      "schuld": 8115,
      "Ġmm": 8116,
      "Ã¶m": 8117,
      "Ġdedic": 8118,
      "mack": 8119,
      "ĠMio": 8120,
      "Ġpleasant": 8121,
      "ĠInhalte": 8122,
      "Ġglobalen": 8123,
      "IR": 8124,
      "Ġwhite": 8125,
      "Ġwert": 8126,
      "ĠSprachen": 8127,
      "Ġinstallation": 8128,
      "uit": 8129,
      "Ġmotion": 8130,
      "Ġexactly": 8131,
      "hle": 8132,
      "idential": 8133,
      "Ġserve": 8134,
      "Ġzentral": 8135,
      "Ġsort": 8136,
      "ĠFrankfurt": 8137,
      "Ġrural": 8138,
      "Ġangesprochen": 8139,
      "ĠAsia": 8140,
      "ideos": 8141,
      "ĠSerb": 8142,
      "ida": 8143,
      "ĠBoard": 8144,
      "do": 8145,
      "esents": 8146,
      "ĠTab": 8147,
      "ĠEinsch": 8148,
      "ĠAbs": 8149,
      "Ġbesonderen": 8150,
      "ĠKoordin": 8151,
      "ault": 8152,
      "Ġkontroll": 8153,
      "ĠZeichen": 8154,
      "Ġrisks": 8155,
      "avi": 8156,
      "Ġinstitutional": 8157,
      "Ġpoll": 8158,
      "Ġprotected": 8159,
      "ĠIrak": 8160,
      "ĠInnovation": 8161,
      "ĠSom": 8162,
      "Ġprem": 8163,
      "ĠMensch": 8164,
      "Ġreception": 8165,
      "spunkt": 8166,
      "Ġprecisely": 8167,
      "Ġsitting": 8168,
      "Ġdead": 8169,
      "ĠFakt": 8170,
      "ĠIndia": 8171,
      "itzerland": 8172,
      "Ġchann": 8173,
      "Ġakzeptieren": 8174,
      "oted": 8175,
      "ĠAssoc": 8176,
      "ĠNahr": 8177,
      "PT": 8178,
      "zieht": 8179,
      "ĠDol": 8180,
      "ĠReformen": 8181,
      "ounge": 8182,
      "called": 8183,
      "udem": 8184,
      "Ġ1995": 8185,
      "Ġsicherzustellen": 8186,
      "Ġcompeten": 8187,
      "sm": 8188,
      "Ġluxur": 8189,
      "ĠArab": 8190,
      "ĠAccording": 8191,
      "ĠCast": 8192,
      "Ġvac": 8193,
      "Ġeinzus": 8194,
      "Ġeingerichtet": 8195,
      "Ġbecoming": 8196,
      "Ġstated": 8197,
      "ĠVerwaltungs": 8198,
      "ua": 8199,
      "Ġ2020": 8200,
      "Ġotherwise": 8201,
      "ĠGriechen": 8202,
      "oom": 8203,
      "Ġfacilit": 8204,
      "uts": 8205,
      "Ġpolice": 8206,
      "Ġcamera": 8207,
      "ĠSchlaf": 8208,
      "law": 8209,
      "Ġrepresents": 8210,
      "ĠUs": 8211,
      "fahrens": 8212,
      "ibilitÃ¤t": 8213,
      "ĠFot": 8214,
      "ĠKind": 8215,
      "Ã¤her": 8216,
      "Ġgeeignet": 8217,
      "ĠCzech": 8218,
      "Ġwants": 8219,
      "ĠPaul": 8220,
      "Ġmand": 8221,
      "ĠFischerei": 8222,
      "stieg": 8223,
      "Ġdiscussed": 8224,
      "Ġtemper": 8225,
      "02": 8226,
      "Ġbudgetary": 8227,
      "ĠMotor": 8228,
      "Ġwahrscheinlich": 8229,
      "ĠHomepage": 8230,
      "weder": 8231,
      "ĠMiddle": 8232,
      "wegung": 8233,
      "Ġdevelopments": 8234,
      "fÃ¼hrer": 8235,
      "unkten": 8236,
      "Ġbestehenden": 8237,
      "Ġ..": 8238,
      "Ġverz": 8239,
      "agegen": 8240,
      "Ġdiscussions": 8241,
      "ĠSalz": 8242,
      "Â°": 8243,
      "ield": 8244,
      "gree": 8245,
      "Ã¤user": 8246,
      "'ll": 8247,
      "Ġbenutzen": 8248,
      "Ġlikely": 8249,
      "ĠReserv": 8250,
      "ĠEff": 8251,
      "ĠRoman": 8252,
      "ĠBew": 8253,
      "ĠAusgaben": 8254,
      "Ġerzielt": 8255,
      "ala": 8256,
      "Ġzug": 8257,
      "quality": 8258,
      "Ġ32": 8259,
      "ĠKomfort": 8260,
      "Ġmix": 8261,
      "Ġconvin": 8262,
      "ipt": 8263,
      "ĠCard": 8264,
      "ĠSektor": 8265,
      "jected": 8266,
      "uber": 8267,
      "ĠSchlieÃŁlich": 8268,
      "Ġspacious": 8269,
      "enhagen": 8270,
      "Ġdomin": 8271,
      "Ġconver": 8272,
      "ĠKarte": 8273,
      "ĠZudem": 8274,
      "ĠThen": 8275,
      "Ġprograms": 8276,
      "ĠZunÃ¤chst": 8277,
      "wasser": 8278,
      "ĠtrÃ¤": 8279,
      "mas": 8280,
      "Ġehr": 8281,
      "ĠIndustr": 8282,
      "Ġauth": 8283,
      "atively": 8284,
      "Ġmanaged": 8285,
      "Ġthousands": 8286,
      "unk": 8287,
      "ĠFebruary": 8288,
      "ĠKonflikt": 8289,
      "IE": 8290,
      "ĠVerfass": 8291,
      "Ġwatch": 8292,
      "Ġforget": 8293,
      "Ġsold": 8294,
      "Ġrechts": 8295,
      "ĠAufnahme": 8296,
      "Ġfreuen": 8297,
      "Ġexpens": 8298,
      "uisine": 8299,
      "Ġwood": 8300,
      "Ġremark": 8301,
      "ĠCode": 8302,
      "Ġfestgelegt": 8303,
      "ĠSchengen": 8304,
      "ĠmÃ¶glicherweise": 8305,
      "ĠHaltung": 8306,
      "amente": 8307,
      "ĠHaushalt": 8308,
      "Ġmetres": 8309,
      "ĠProv": 8310,
      "ĠExp": 8311,
      "Ġexpand": 8312,
      "Ġausgew": 8313,
      "Ġentry": 8314,
      "ĠGreat": 8315,
      "jo": 8316,
      "ĠWellness": 8317,
      "Ġassessment": 8318,
      "Ġcovered": 8319,
      "Ġzuletzt": 8320,
      "Ã¼ste": 8321,
      "achtet": 8322,
      "icks": 8323,
      "Äį": 8324,
      "ĠProte": 8325,
      "Ġcompl": 8326,
      "Ġpaper": 8327,
      "schiede": 8328,
      "Ġcritical": 8329,
      "ĠLuxem": 8330,
      "Ġ?": 8331,
      "Ġumgesetzt": 8332,
      "Ġcorresp": 8333,
      "Ġexpected": 8334,
      "Ġjene": 8335,
      "Ġnotwendigen": 8336,
      "ĠKenntnis": 8337,
      "categories": 8338,
      "ĠprÃ¼fen": 8339,
      "ĠOther": 8340,
      "Ġguidelines": 8341,
      "ĠVorbereit": 8342,
      "Ġmil": 8343,
      "ĠBeitritts": 8344,
      "ĠgeÃ¤ndert": 8345,
      "Ġinside": 8346,
      "Ġselected": 8347,
      "Ġprovider": 8348,
      "aste": 8349,
      "Ġfollowed": 8350,
      "Ġfinanziellen": 8351,
      "Sp": 8352,
      "Ã¼cke": 8353,
      "Ġactual": 8354,
      "Ġanderes": 8355,
      "Ġhoffen": 8356,
      "ĠAnpass": 8357,
      "ensions": 8358,
      "Ġdefend": 8359,
      "rum": 8360,
      "bu": 8361,
      "ĠerfÃ¼llt": 8362,
      "werke": 8363,
      "Ġearlier": 8364,
      "Ġclosely": 8365,
      "Ġdienen": 8366,
      "Ġradio": 8367,
      "Ġintroduction": 8368,
      "ĠTurk": 8369,
      "Ġwinter": 8370,
      "posed": 8371,
      "ĠWettbewerbsfÃ¤higkeit": 8372,
      "Ġmedical": 8373,
      "ĠUnterkategorien": 8374,
      "ureau": 8375,
      "Ġbequem": 8376,
      "Ġweap": 8377,
      "Ġergreifen": 8378,
      "Ġdebt": 8379,
      "Ġcentr": 8380,
      "ĠiP": 8381,
      "ĠNutzen": 8382,
      "Ġlisted": 8383,
      "Ġfreien": 8384,
      "ĠSchlÃ¼ssel": 8385,
      "Ġbuildings": 8386,
      "Ġvotes": 8387,
      "ĠStraÃŁe": 8388,
      "ĠMilit": 8389,
      "ĠRichtlinien": 8390,
      "Ġenterprises": 8391,
      "ĠResearch": 8392,
      "kap": 8393,
      "ente": 8394,
      "ĠMonate": 8395,
      "Sh": 8396,
      "ĠTar": 8397,
      "ulieren": 8398,
      "Ġunters": 8399,
      "ĠFunktionen": 8400,
      "uropa": 8401,
      "ĠTechnologien": 8402,
      "ĠGeh": 8403,
      "ailing": 8404,
      "ĠRooms": 8405,
      "Ġimpress": 8406,
      "Ġspread": 8407,
      "Ġjederzeit": 8408,
      "Ġbeziehen": 8409,
      "prÃ¤sident": 8410,
      "ĠAp": 8411,
      "Ġscen": 8412,
      "ĠWhy": 8413,
      "cers": 8414,
      "werten": 8415,
      "Ġnetworks": 8416,
      "Ġdisapp": 8417,
      "inu": 8418,
      "ĠTun": 8419,
      "ulierung": 8420,
      "Ġaccomp": 8421,
      "ĠFle": 8422,
      "ĠlÃ¶sen": 8423,
      "ĠwÃ¼nschen": 8424,
      "Ġvermeiden": 8425,
      "asts": 8426,
      "ĠZweck": 8427,
      "DP": 8428,
      "ĠEconomic": 8429,
      "levision": 8430,
      "ĠPower": 8431,
      "denken": 8432,
      "Ġtrust": 8433,
      "Ġschwierig": 8434,
      "ĠProdukten": 8435,
      "britann": 8436,
      "ĠFischere": 8437,
      "gets": 8438,
      "Ġimproving": 8439,
      "Ġelectric": 8440,
      "ĠClick": 8441,
      "ads": 8442,
      "Ġfahren": 8443,
      "Ġcolor": 8444,
      "Ġade": 8445,
      "ishing": 8446,
      "ĠUmst": 8447,
      "iques": 8448,
      "Ġgraph": 8449,
      "band": 8450,
      "Ġausger": 8451,
      "Ġbraucht": 8452,
      "Ġlinked": 8453,
      "ĠKlein": 8454,
      "ĠAv": 8455,
      "ĠStil": 8456,
      "Ġterritor": 8457,
      "Ġeinzu": 8458,
      "Ġopened": 8459,
      "ĠKindern": 8460,
      "either": 8461,
      "Ġoperations": 8462,
      "Ġgleiche": 8463,
      "Ġ400": 8464,
      "Ġsupporting": 8465,
      "mod": 8466,
      "vements": 8467,
      "Ġries": 8468,
      "ĠsÃ¼d": 8469,
      "Ġexplo": 8470,
      "ĠHaup": 8471,
      "onym": 8472,
      "atik": 8473,
      "jekten": 8474,
      "sta": 8475,
      "ĠVielfalt": 8476,
      "cause": 8477,
      "Ġunderstanding": 8478,
      "Ġimmigration": 8479,
      "ĠArten": 8480,
      "Ġunc": 8481,
      "reiten": 8482,
      "ĠÃ©": 8483,
      "Ġspeech": 8484,
      "ĠJa": 8485,
      "Ġmarketing": 8486,
      "ĠDateien": 8487,
      "Ġged": 8488,
      "Ġverbessert": 8489,
      "aves": 8490,
      "ĠSuche": 8491,
      "ingu": 8492,
      "rahmen": 8493,
      "freiheit": 8494,
      "scher": 8495,
      "Ġexclusive": 8496,
      "Ġtelephone": 8497,
      "Ġuses": 8498,
      "Ġmultip": 8499,
      "ĠSchiff": 8500,
      "wirk": 8501,
      "ĠFound": 8502,
      "Ġcomment": 8503,
      "Ġdegree": 8504,
      "Ġstattfinden": 8505,
      "ĠMeter": 8506,
      "ĠCharakter": 8507,
      "ĠInfrastruktur": 8508,
      "ĠApartments": 8509,
      "Ġfrag": 8510,
      "Ġkostenlos": 8511,
      "Ġconsiderable": 8512,
      "ĠGreece": 8513,
      "Ġbeds": 8514,
      "ktiven": 8515,
      "TA": 8516,
      "Ġwent": 8517,
      "ĠSwitzerland": 8518,
      "Ġfallen": 8519,
      "Ġcompens": 8520,
      "etze": 8521,
      "Ġmap": 8522,
      "gencies": 8523,
      "ĠPack": 8524,
      "ĠprÃ¤": 8525,
      "ĠInstallation": 8526,
      "inc": 8527,
      "bruch": 8528,
      "ĠSinn": 8529,
      "Ġtempor": 8530,
      "Ġmultil": 8531,
      "Ġsicherlich": 8532,
      "roh": 8533,
      "ĠOffice": 8534,
      "Ġhands": 8535,
      "ĠFrem": 8536,
      "ĠEinrichtungen": 8537,
      "Ġlesen": 8538,
      "ĠBreak": 8539,
      "Ġsubstantial": 8540,
      "Ġentit": 8541,
      "crete": 8542,
      "union": 8543,
      "ĠMoment": 8544,
      "ometer": 8545,
      "clude": 8546,
      "Ġcompar": 8547,
      "ĠBush": 8548,
      "ĠRein": 8549,
      "mÃ¶glich": 8550,
      "ora": 8551,
      "imb": 8552,
      "istence": 8553,
      "Ġempfehl": 8554,
      "punkte": 8555,
      "ĠStandards": 8556,
      "konferenz": 8557,
      "ĠMenge": 8558,
      "igem": 8559,
      "ĠgemÃ¼t": 8560,
      "Ġabst": 8561,
      "ĠPrag": 8562,
      "Ġacqu": 8563,
      "kunfts": 8564,
      "Ġshower": 8565,
      "Ġtourism": 8566,
      "Ġsave": 8567,
      "35": 8568,
      "ĠGrundsatz": 8569,
      "Ġpresence": 8570,
      "Ġdestro": 8571,
      "itors": 8572,
      "Ġgave": 8573,
      "ĠWege": 8574,
      "can": 8575,
      "Ġabzu": 8576,
      "Ġdarunter": 8577,
      "Ġgelangen": 8578,
      "olden": 8579,
      "ĠTelefon": 8580,
      "Ġeffizient": 8581,
      "istrib": 8582,
      "Ġjeweils": 8583,
      "Ġproperly": 8584,
      "uard": 8585,
      "prÃ¼fung": 8586,
      "Ġpicture": 8587,
      "Ġgern": 8588,
      "Ġcuisine": 8589,
      "ĠgewÃ¼n": 8590,
      "Ġscr": 8591,
      "Ġcomponents": 8592,
      "ĠBarro": 8593,
      "Ġplaying": 8594,
      "ĠTop": 8595,
      "ussels": 8596,
      "ĠStimme": 8597,
      "Ġangezeigt": 8598,
      "Ġerzielen": 8599,
      "Ġbrief": 8600,
      "ĠStreet": 8601,
      "leitung": 8602,
      "ee": 8603,
      "ĠKy": 8604,
      "Ġhtt": 8605,
      "Ġpurchase": 8606,
      "atoren": 8607,
      "Ġentweder": 8608,
      "ĠForderung": 8609,
      "ĠStation": 8610,
      "nach": 8611,
      "Ġbott": 8612,
      "Ġdelay": 8613,
      "Ġ--": 8614,
      "Ġitems": 8615,
      "Ġconvenient": 8616,
      "âĢĵ": 8617,
      "uting": 8618,
      "ĠSehens": 8619,
      "ikanische": 8620,
      "Ġphotograph": 8621,
      "Ġanimal": 8622,
      "Ġfisheries": 8623,
      "gemeine": 8624,
      "ADS": 8625,
      "ĠVereinten": 8626,
      "sper": 8627,
      "Ġduty": 8628,
      "Ġdoor": 8629,
      "prechen": 8630,
      "Ġfounded": 8631,
      "Ġexperts": 8632,
      "chmal": 8633,
      "zieren": 8634,
      "ĠBelarus": 8635,
      "ĠerhÃ¶hen": 8636,
      "Ġcoordination": 8637,
      "ĠFebruar": 8638,
      "aw": 8639,
      "Ġdramat": 8640,
      "ĠGroÃŁbritann": 8641,
      "Ġentirely": 8642,
      "ĠergÃ¤n": 8643,
      "ĠausdrÃ¼cklich": 8644,
      "maÃŁ": 8645,
      "Ã¼tze": 8646,
      "ĠÃ¼bernachten": 8647,
      "Ġplants": 8648,
      "ĠWirk": 8649,
      "dis": 8650,
      "wohner": 8651,
      "lad": 8652,
      "Ġging": 8653,
      "preis": 8654,
      "Ġsole": 8655,
      "ĠAbschlieÃŁend": 8656,
      "gebaut": 8657,
      "itter": 8658,
      "stelle": 8659,
      "Ġformat": 8660,
      "ĠStatus": 8661,
      "Ġincor": 8662,
      "Aus": 8663,
      "ĠPhil": 8664,
      "itze": 8665,
      "Ġalloc": 8666,
      "ĠLehr": 8667,
      "Ġauthority": 8668,
      "Ġtypical": 8669,
      "Ġmobil": 8670,
      "ĠLib": 8671,
      "Ġstrict": 8672,
      "Ġrefuge": 8673,
      "Ġteilweise": 8674,
      "ĠstÃ¤rk": 8675,
      "ĠwÃ¤ren": 8676,
      "Ġgekommen": 8677,
      "Ġgenerally": 8678,
      "ĠVÃ¶lker": 8679,
      "Ġcompetitiveness": 8680,
      "Ġuntern": 8681,
      "Ġbesuchen": 8682,
      "Ġpresidency": 8683,
      "gment": 8684,
      "schul": 8685,
      "Ġsho": 8686,
      "Ġgrenz": 8687,
      "ĠArbeiten": 8688,
      "ĠISO": 8689,
      "ĠBereit": 8690,
      "Ġwilling": 8691,
      "gal": 8692,
      "Ġdifficulties": 8693,
      "Ġtechnische": 8694,
      "ĠKlimawand": 8695,
      "ĠNever": 8696,
      "Ġalte": 8697,
      "Ġwelcher": 8698,
      "Ġtack": 8699,
      "Ġsagt": 8700,
      "Ġdealing": 8701,
      "Ġcoffe": 8702,
      "vey": 8703,
      "tempor": 8704,
      "Ġelimin": 8705,
      "ĠNI": 8706,
      "club": 8707,
      "rÃ¤ft": 8708,
      "ĠstÃ¤ndig": 8709,
      "ĠBÃ¼ro": 8710,
      "ennis": 8711,
      "ĠDatei": 8712,
      "ĠNetzwerk": 8713,
      "ura": 8714,
      "Ã¼nen": 8715,
      "ĠBrussels": 8716,
      "Ġinterpret": 8717,
      "Ġkomplett": 8718,
      "Ġkommenden": 8719,
      "schlossen": 8720,
      "Ġcombat": 8721,
      "ĠGuest": 8722,
      "Ġstimme": 8723,
      "45": 8724,
      "Ġhosp": 8725,
      "try": 8726,
      "Ġwollte": 8727,
      "Ġpermanent": 8728,
      "ĠFore": 8729,
      "ĠPoland": 8730,
      "Ġbetonen": 8731,
      "Ġkomplex": 8732,
      "ĠPlen": 8733,
      "Ġchines": 8734,
      "Ġdispos": 8735,
      "Ġnieder": 8736,
      "Ġconstit": 8737,
      "Ġerstellt": 8738,
      "plÃ¤tze": 8739,
      "Ġcriminal": 8740,
      "RA": 8741,
      "Ãĥ": 8742,
      "ĠSow": 8743,
      "ĠHealth": 8744,
      "Ġpsych": 8745,
      "Er": 8746,
      "Ġrelate": 8747,
      "ĠWien": 8748,
      "ĠKol": 8749,
      "Â»": 8750,
      "gewicht": 8751,
      "EA": 8752,
      "Ġzuvor": 8753,
      "ĠPakistan": 8754,
      "Ġverur": 8755,
      "Ġorganisation": 8756,
      "Ġdetail": 8757,
      "ĠTeile": 8758,
      "sb": 8759,
      "ĠLeistungen": 8760,
      "Ġrecognis": 8761,
      "ĠBos": 8762,
      "ĠBecause": 8763,
      "erstellen": 8764,
      "km": 8765,
      "ĠOver": 8766,
      "rÃ¤gen": 8767,
      "Ã¼nden": 8768,
      "fÃ¼ll": 8769,
      "ĠVerÃ¤nderungen": 8770,
      "Ġsuc": 8771,
      "Ġshops": 8772,
      "Ġinformieren": 8773,
      "Ġfunktioniert": 8774,
      "Ġklare": 8775,
      "overy": 8776,
      "Ġpeaceful": 8777,
      "Ġhandeln": 8778,
      "mÃ¤r": 8779,
      "ishes": 8780,
      "ossible": 8781,
      "Ġvehicles": 8782,
      "ĠBerichte": 8783,
      "fachen": 8784,
      "Ġfacing": 8785,
      "ĠInstrumente": 8786,
      "ĠSach": 8787,
      "Ġcalc": 8788,
      "Ġlernen": 8789,
      "Ġmoral": 8790,
      "ĠInitiativen": 8791,
      "inary": 8792,
      "ries": 8793,
      "ĠBay": 8794,
      "01": 8795,
      "ĠHeil": 8796,
      "Ġthinking": 8797,
      "Ġmachines": 8798,
      "ĠSP": 8799,
      "ĠName": 8800,
      "ĠUnabhÃ¤ng": 8801,
      "Ġsand": 8802,
      "ĠMadrid": 8803,
      "aken": 8804,
      "Ġparagraph": 8805,
      "ĠBanken": 8806,
      "Ġdarstellen": 8807,
      "MU": 8808,
      "ameter": 8809,
      "ĠAbgeordnete": 8810,
      "ĠÅ": 8811,
      "umn": 8812,
      "Ġresort": 8813,
      "ĠVerstÃ¤nd": 8814,
      "Ġspeaking": 8815,
      "Ġfragen": 8816,
      "Ġmeetings": 8817,
      "Ġpercent": 8818,
      "ĠEisen": 8819,
      "ĠSchn": 8820,
      "Ġadjust": 8821,
      "Ġsauber": 8822,
      "ĠUnfortunately": 8823,
      "Ġflexibility": 8824,
      "yer": 8825,
      "Ġober": 8826,
      "ĠDienste": 8827,
      "ĠAbsatz": 8828,
      "ĠWebseite": 8829,
      "Ġresist": 8830,
      "Ġhttp": 8831,
      "Ġapplies": 8832,
      "ĠZeitraum": 8833,
      "umm": 8834,
      "portion": 8835,
      "ĠLeider": 8836,
      "Ġconsideration": 8837,
      "Ġaverage": 8838,
      "Ġtrave": 8839,
      "ĠVill": 8840,
      "ĠAct": 8841,
      "Ġ),": 8842,
      "ĠSysteme": 8843,
      "Ġrefle": 8844,
      "Ġdistrict": 8845,
      "ĠBand": 8846,
      "Ġbecomes": 8847,
      "ĠOut": 8848,
      "ĠEngagement": 8849,
      "ova": 8850,
      "Ġnumbers": 8851,
      "Ġbear": 8852,
      "ĠIC": 8853,
      "Ġruss": 8854,
      "ĠKal": 8855,
      "Ġincome": 8856,
      "inding": 8857,
      "IB": 8858,
      "schech": 8859,
      "Ġhour": 8860,
      "ĠBegriff": 8861,
      "ĠJetzt": 8862,
      "Ġgefordert": 8863,
      "stechn": 8864,
      "Ġdagegen": 8865,
      "ĠGrenz": 8866,
      "allel": 8867,
      "ĠKurz": 8868,
      "bew": 8869,
      "Ġfixed": 8870,
      "ĠEnvironment": 8871,
      "ĠMaschinen": 8872,
      "ĠWander": 8873,
      "Ġtold": 8874,
      "iking": 8875,
      "Ġopposition": 8876,
      "ashion": 8877,
      "rich": 8878,
      "oman": 8879,
      "ĠEADS": 8880,
      "hnung": 8881,
      "Ġpractices": 8882,
      "tete": 8883,
      "Ġdro": 8884,
      "ĠZeiten": 8885,
      "like": 8886,
      "Ġdurchaus": 8887,
      "Ġkonkrete": 8888,
      "Ġschem": 8889,
      "Ġdomestic": 8890,
      "ĠGipfel": 8891,
      "Ġpromotion": 8892,
      "ĠPHP": 8893,
      "lern": 8894,
      "Ġsorg": 8895,
      "Ġwenigen": 8896,
      "Ġverring": 8897,
      "ĠMir": 8898,
      "ĠHerstellung": 8899,
      "Ġsle": 8900,
      "ĠMount": 8901,
      "ĠstÃ¤rken": 8902,
      "hrase": 8903,
      "ĠUnder": 8904,
      "embly": 8905,
      "Ġsucceed": 8906,
      "Ġinstru": 8907,
      "Ġerleben": 8908,
      "Ġunternehmen": 8909,
      "Ã¶ffnen": 8910,
      "Ġjur": 8911,
      "ĠMÃ¶": 8912,
      "ĠÃľbergang": 8913,
      "Ġgradu": 8914,
      "ĠMitgliedstaat": 8915,
      "ĠAngaben": 8916,
      "ĠVielen": 8917,
      "32": 8918,
      "ĠKritik": 8919,
      "aker": 8920,
      "Ġbodies": 8921,
      "ĠCasino": 8922,
      "ĠFonds": 8923,
      "Ġorient": 8924,
      "SL": 8925,
      "ĠGN": 8926,
      "ĠBern": 8927,
      "ĠMel": 8928,
      "ranken": 8929,
      "Ġcontra": 8930,
      "haben": 8931,
      "Ġaims": 8932,
      "Ġvolle": 8933,
      "ĠgewÃ¤hrleistet": 8934,
      "pper": 8935,
      "hÃ¶rde": 8936,
      "iro": 8937,
      "Ġhimself": 8938,
      "qualitÃ¤t": 8939,
      "kle": 8940,
      "ĠBlack": 8941,
      "leistungs": 8942,
      "ĠOrigin": 8943,
      "Ġeingesch": 8944,
      "iÃŁen": 8945,
      "Ġpropose": 8946,
      "Ġlif": 8947,
      "illing": 8948,
      "ĠVien": 8949,
      "Ġmyself": 8950,
      "Ġwirks": 8951,
      "yes": 8952,
      "Str": 8953,
      "Ġlokalen": 8954,
      "Ġdefined": 8955,
      "ĠWass": 8956,
      "Ġsignal": 8957,
      "fÃ¼hrten": 8958,
      "ĠHauses": 8959,
      "Ġsuperv": 8960,
      "ĠNon": 8961,
      "LE": 8962,
      "ĠTool": 8963,
      "ĠGebieten": 8964,
      "ĠImmobilien": 8965,
      "ĠKil": 8966,
      "ĠOnce": 8967,
      "Ġestablishment": 8968,
      "ĠRisiko": 8969,
      "ĠverÃ¶ffentlicht": 8970,
      "Ġfle": 8971,
      "iche": 8972,
      "ĠAnteil": 8973,
      "Ġabsolut": 8974,
      "ĠWorte": 8975,
      "Ġadvanced": 8976,
      "2000": 8977,
      "isierten": 8978,
      "Ġrent": 8979,
      "cknow": 8980,
      "ĠerklÃ¤ren": 8981,
      "esterday": 8982,
      "ĠtrÃ¤gt": 8983,
      "fa": 8984,
      "tte": 8985,
      "Ġmiddle": 8986,
      "waren": 8987,
      "Ġeasier": 8988,
      ");": 8989,
      "Ġpolitics": 8990,
      "Ġfreue": 8991,
      "isms": 8992,
      "ĠSaf": 8993,
      "ĠEinigung": 8994,
      "Ġliebe": 8995,
      "Ġfit": 8996,
      "ĠhÃ¤lt": 8997,
      "bericht": 8998,
      "Ġclaim": 8999,
      "Ġhinzuf": 9000,
      "Ġdatabase": 9001,
      "uba": 9002,
      "ĠRoy": 9003,
      "ĠKÃ¶nigreich": 9004,
      "etter": 9005,
      "Ð²": 9006,
      "wagen": 9007,
      "ĠfrÃ¼h": 9008,
      "worten": 9009,
      "ĠbenÃ¶tigt": 9010,
      "Ġpromoting": 9011,
      "lisch": 9012,
      "Ġsigned": 9013,
      "Ġerfolgen": 9014,
      "haber": 9015,
      "Ġclar": 9016,
      "Ã©e": 9017,
      "opol": 9018,
      "Ġfinanzielle": 9019,
      "utin": 9020,
      "ando": 9021,
      "ĠHerausforderung": 9022,
      "ĠRegelung": 9023,
      "ĠWarum": 9024,
      "Ġfailure": 9025,
      "Ġpros": 9026,
      "ĠSehenswÃ¼rd": 9027,
      "free": 9028,
      "Ġinformed": 9029,
      "known": 9030,
      "ĠLo": 9031,
      "Ġfinancing": 9032,
      "Ġzul": 9033,
      "Ã¶der": 9034,
      "accept": 9035,
      "Ġparliamentary": 9036,
      "Ġconduct": 9037,
      "year": 9038,
      "ibet": 9039,
      "ĠVersuch": 9040,
      "Ġverwende": 9041,
      "schung": 9042,
      "Ġacknow": 9043,
      "Ġerscheint": 9044,
      "ĠUl": 9045,
      "Ġseriously": 9046,
      "Ġexperienced": 9047,
      "Ġglob": 9048,
      "Ġancient": 9049,
      "ĠAtlant": 9050,
      "ĠStellungnahme": 9051,
      "ĠModern": 9052,
      "Ġmulti": 9053,
      "ĠSonnen": 9054,
      "Ġgering": 9055,
      "ĠKingdom": 9056,
      "ĠRatsvorsitz": 9057,
      "ĠRechnung": 9058,
      "ĠSuper": 9059,
      "flanzen": 9060,
      "lÃ¤gen": 9061,
      "Ġvoice": 9062,
      "Ñı": 9063,
      "wogen": 9064,
      "pendence": 9065,
      "Ne": 9066,
      "ĠnÃ¤chste": 9067,
      "ĠPrioritÃ¤ten": 9068,
      "Ġdennoch": 9069,
      "ĠForderungen": 9070,
      "Ġanyone": 9071,
      "making": 9072,
      "Ġtranslation": 9073,
      "Ġcoffee": 9074,
      "ĠZweifel": 9075,
      "ĠKenn": 9076,
      "ĠKlicken": 9077,
      "Ġgeograph": 9078,
      "ĠmÃ¶glichst": 9079,
      "ĠSanta": 9080,
      "lÃ¶sung": 9081,
      "Ġlength": 9082,
      "ĠAsyl": 9083,
      "ĠBib": 9084,
      "Ã¼g": 9085,
      "da": 9086,
      "ĠHafen": 9087,
      "]],": 9088,
      "Ġdangerous": 9089,
      "ĠGewÃ¤hr": 9090,
      "ĠBrÃ¼ssel": 9091,
      "ĠBreakfast": 9092,
      "ĠColle": 9093,
      "ĠRum": 9094,
      "Ġ2011": 9095,
      "ĠEinhaltung": 9096,
      "qual": 9097,
      "Ġkonzentrieren": 9098,
      "Ġhop": 9099,
      "box": 9100,
      "ĠForum": 9101,
      "ĠMechan": 9102,
      "Ġberu": 9103,
      "ĠJahrhunderts": 9104,
      "ĠAufbau": 9105,
      "Ġrech": 9106,
      "ĠStein": 9107,
      "ris": 9108,
      "SC": 9109,
      "Ġimag": 9110,
      "Ġcooper": 9111,
      "Ġpositions": 9112,
      "Ġsty": 9113,
      "Ġestate": 9114,
      "icians": 9115,
      "Ġklicken": 9116,
      "ĠNote": 9117,
      "Ġgegenseit": 9118,
      "Ġklass": 9119,
      "ĠTitel": 9120,
      "Ġstructures": 9121,
      "ĠAchtung": 9122,
      "ĠPrivate": 9123,
      "Ġcelebr": 9124,
      "Ġerstellen": 9125,
      "ĠAnalyse": 9126,
      "Ġdifferences": 9127,
      "Ġmodels": 9128,
      "Ġconnected": 9129,
      "Ġstudies": 9130,
      "Ġdifference": 9131,
      "Ġorganiz": 9132,
      "Ġassociated": 9133,
      "ĠKirche": 9134,
      "ĠHarmon": 9135,
      "Ġstable": 9136,
      "ĠFlÃ¼cht": 9137,
      "ĠFen": 9138,
      "ĠDennoch": 9139,
      "ĠÃ¼bertragen": 9140,
      "iegel": 9141,
      "Ġconcrete": 9142,
      "ĠEntschlieÃŁungsantrag": 9143,
      "ĠGeist": 9144,
      "Ġdefence": 9145,
      "ĠFormen": 9146,
      "64": 9147,
      "DA": 9148,
      "Ġzerst": 9149,
      "Ġappears": 9150,
      "ibrary": 9151,
      "llos": 9152,
      "deck": 9153,
      "Ġwithdra": 9154,
      "arta": 9155,
      "Ġinstance": 9156,
      "ĠAssociation": 9157,
      "ungsk": 9158,
      "peratur": 9159,
      "Ġnatur": 9160,
      "Ġwelcom": 9161,
      "ĠAllgemein": 9162,
      "Ġoppos": 9163,
      "Ġtut": 9164,
      "Ġhouses": 9165,
      "Ġunterschiedliche": 9166,
      "Ġunge": 9167,
      "Ġverfolgen": 9168,
      "ĠMittelmeer": 9169,
      "erman": 9170,
      "Ġhappened": 9171,
      "sport": 9172,
      "Ġimplementing": 9173,
      "Ġneighbour": 9174,
      "Ġunto": 9175,
      "ĠAlex": 9176,
      "ĠRec": 9177,
      "ĠAspekt": 9178,
      "Ġcombination": 9179,
      "Ġsafeg": 9180,
      "verkehrs": 9181,
      "Ġnennen": 9182,
      "ĠpersÃ¶nlich": 9183,
      "ĠSekt": 9184,
      "ĠNachfolgend": 9185,
      "zz": 9186,
      "greif": 9187,
      "ifiziert": 9188,
      "Ġbeaches": 9189,
      "rÃ¤ume": 9190,
      "Ġadoption": 9191,
      "reifen": 9192,
[...]
